{
  "version": "1.0",
  "truncation": null,
  "padding": null,
  "added_tokens": [
    {
      "id": 0,
      "content": "<unk>",
      "single_word": false,
      "lstrip": false,
      "rstrip": false,
      "normalized": false,
      "special": true
    },
    {
      "id": 1,
      "content": "<s>",
      "single_word": false,
      "lstrip": false,
      "rstrip": false,
      "normalized": false,
      "special": true
    },
    {
      "id": 2,
      "content": "</s>",
      "single_word": false,
      "lstrip": false,
      "rstrip": false,
      "normalized": false,
      "special": true
    },
    {
      "id": 3,
      "content": "<pad>",
      "single_word": false,
      "lstrip": false,
      "rstrip": false,
      "normalized": false,
      "special": true
    }
  ],
  "normalizer": null,
  "pre_tokenizer": {
    "type": "ByteLevel",
    "add_prefix_space": false,
    "trim_offsets": true,
    "use_regex": true
  },
  "post_processor": {
    "type": "ByteLevel",
    "add_prefix_space": true,
    "trim_offsets": false,
    "use_regex": true
  },
  "decoder": {
    "type": "ByteLevel",
    "add_prefix_space": true,
    "trim_offsets": true,
    "use_regex": true
  },
  "model": {
    "type": "BPE",
    "dropout": null,
    "unk_token": null,
    "continuing_subword_prefix": null,
    "end_of_word_suffix": null,
    "fuse_unk": false,
    "byte_fallback": false,
    "ignore_merges": false,
    "vocab": {
      "<unk>": 0,
      "<s>": 1,
      "</s>": 2,
      "<pad>": 3,
      "!": 4,
      "\"": 5,
      "#": 6,
      "$": 7,
      "%": 8,
      "&": 9,
      "'": 10,
      "(": 11,
      ")": 12,
      "*": 13,
      "+": 14,
      ",": 15,
      "-": 16,
      ".": 17,
      "/": 18,
      "0": 19,
      "1": 20,
      "2": 21,
      "3": 22,
      "4": 23,
      "5": 24,
      "6": 25,
      "7": 26,
      "8": 27,
      "9": 28,
      ":": 29,
      ";": 30,
      "<": 31,
      "=": 32,
      ">": 33,
      "?": 34,
      "@": 35,
      "A": 36,
      "B": 37,
      "C": 38,
      "D": 39,
      "E": 40,
      "F": 41,
      "G": 42,
      "H": 43,
      "I": 44,
      "J": 45,
      "K": 46,
      "L": 47,
      "M": 48,
      "N": 49,
      "O": 50,
      "P": 51,
      "Q": 52,
      "R": 53,
      "S": 54,
      "T": 55,
      "U": 56,
      "V": 57,
      "W": 58,
      "X": 59,
      "Y": 60,
      "Z": 61,
      "[": 62,
      "\\": 63,
      "]": 64,
      "^": 65,
      "_": 66,
      "`": 67,
      "a": 68,
      "b": 69,
      "c": 70,
      "d": 71,
      "e": 72,
      "f": 73,
      "g": 74,
      "h": 75,
      "i": 76,
      "j": 77,
      "k": 78,
      "l": 79,
      "m": 80,
      "n": 81,
      "o": 82,
      "p": 83,
      "q": 84,
      "r": 85,
      "s": 86,
      "t": 87,
      "u": 88,
      "v": 89,
      "w": 90,
      "x": 91,
      "y": 92,
      "z": 93,
      "{": 94,
      "|": 95,
      "}": 96,
      "~": 97,
      "¡": 98,
      "¢": 99,
      "£": 100,
      "¤": 101,
      "¥": 102,
      "¦": 103,
      "§": 104,
      "¨": 105,
      "©": 106,
      "ª": 107,
      "«": 108,
      "¬": 109,
      "®": 110,
      "¯": 111,
      "°": 112,
      "±": 113,
      "²": 114,
      "³": 115,
      "´": 116,
      "µ": 117,
      "¶": 118,
      "·": 119,
      "¸": 120,
      "¹": 121,
      "º": 122,
      "»": 123,
      "¼": 124,
      "½": 125,
      "¾": 126,
      "¿": 127,
      "À": 128,
      "Á": 129,
      "Â": 130,
      "Ã": 131,
      "Ä": 132,
      "Å": 133,
      "Æ": 134,
      "Ç": 135,
      "È": 136,
      "É": 137,
      "Ê": 138,
      "Ë": 139,
      "Ì": 140,
      "Í": 141,
      "Î": 142,
      "Ï": 143,
      "Ð": 144,
      "Ñ": 145,
      "Ò": 146,
      "Ó": 147,
      "Ô": 148,
      "Õ": 149,
      "Ö": 150,
      "×": 151,
      "Ø": 152,
      "Ù": 153,
      "Ú": 154,
      "Û": 155,
      "Ü": 156,
      "Ý": 157,
      "Þ": 158,
      "ß": 159,
      "à": 160,
      "á": 161,
      "â": 162,
      "ã": 163,
      "ä": 164,
      "å": 165,
      "æ": 166,
      "ç": 167,
      "è": 168,
      "é": 169,
      "ê": 170,
      "ë": 171,
      "ì": 172,
      "í": 173,
      "î": 174,
      "ï": 175,
      "ð": 176,
      "ñ": 177,
      "ò": 178,
      "ó": 179,
      "ô": 180,
      "õ": 181,
      "ö": 182,
      "÷": 183,
      "ø": 184,
      "ù": 185,
      "ú": 186,
      "û": 187,
      "ü": 188,
      "ý": 189,
      "þ": 190,
      "ÿ": 191,
      "Ā": 192,
      "ā": 193,
      "Ă": 194,
      "ă": 195,
      "Ą": 196,
      "ą": 197,
      "Ć": 198,
      "ć": 199,
      "Ĉ": 200,
      "ĉ": 201,
      "Ċ": 202,
      "ċ": 203,
      "Č": 204,
      "č": 205,
      "Ď": 206,
      "ď": 207,
      "Đ": 208,
      "đ": 209,
      "Ē": 210,
      "ē": 211,
      "Ĕ": 212,
      "ĕ": 213,
      "Ė": 214,
      "ė": 215,
      "Ę": 216,
      "ę": 217,
      "Ě": 218,
      "ě": 219,
      "Ĝ": 220,
      "ĝ": 221,
      "Ğ": 222,
      "ğ": 223,
      "Ġ": 224,
      "ġ": 225,
      "Ģ": 226,
      "ģ": 227,
      "Ĥ": 228,
      "ĥ": 229,
      "Ħ": 230,
      "ħ": 231,
      "Ĩ": 232,
      "ĩ": 233,
      "Ī": 234,
      "ī": 235,
      "Ĭ": 236,
      "ĭ": 237,
      "Į": 238,
      "į": 239,
      "İ": 240,
      "ı": 241,
      "Ĳ": 242,
      "ĳ": 243,
      "Ĵ": 244,
      "ĵ": 245,
      "Ķ": 246,
      "ķ": 247,
      "ĸ": 248,
      "Ĺ": 249,
      "ĺ": 250,
      "Ļ": 251,
      "ļ": 252,
      "Ľ": 253,
      "ľ": 254,
      "Ŀ": 255,
      "ŀ": 256,
      "Ł": 257,
      "ł": 258,
      "Ń": 259,
      "Ġt": 260,
      "he": 261,
      "Ġa": 262,
      "in": 263,
      "Ġthe": 264,
      "er": 265,
      "on": 266,
      "Ġ,": 267,
      "re": 268,
      "Ġs": 269,
      "Ġo": 270,
      "Ġw": 271,
      "ed": 272,
      "un": 273,
      "Ġ.": 274,
      "at": 275,
      "nd": 276,
      "or": 277,
      "Ġc": 278,
      "it": 279,
      "Ġf": 280,
      "en": 281,
      "is": 282,
      "Ġof": 283,
      "es": 284,
      "Ġb": 285,
      "Ġin": 286,
      "ar": 287,
      "unk": 288,
      "an": 289,
      "Ġ<": 290,
      "al": 291,
      "Ġand": 292,
      "Ġp": 293,
      "ing": 294,
      "as": 295,
      "Ġto": 296,
      "Ġm": 297,
      "ro": 298,
      "ic": 299,
      "Ġd": 300,
      "Ġh": 301,
      "ĠĊ": 302,
      "ion": 303,
      "le": 304,
      "ĠT": 305,
      "Ġ=": 306,
      "Ġre": 307,
      "Ġ\"": 308,
      "Ġth": 309,
      "ent": 310,
      "ou": 311,
      "ĠA": 312,
      "Ġ1": 313,
      "il": 314,
      "ĠS": 315,
      "st": 316,
      "Ġl": 317,
      "om": 318,
      "Ġe": 319,
      "Ġn": 320,
      "Ġ@": 321,
      "am": 322,
      "ĠC": 323,
      "el": 324,
      "ad": 325,
      "Ġwas": 326,
      "ac": 327,
      "ĠThe": 328,
      "Ġon": 329,
      "Ġbe": 330,
      "ur": 331,
      "ly": 332,
      "ĠM": 333,
      "Ġ'": 334,
      "ĠI": 335,
      "Ġg": 336,
      "Ġfor": 337,
      "iv": 338,
      "ol": 339,
      "ter": 340,
      "ĠB": 341,
      "-@": 342,
      "Ġ@-@": 343,
      "im": 344,
      "id": 345,
      "ir": 346,
      "Ġas": 347,
      "ct": 348,
      "ig": 349,
      "th": 350,
      "ow": 351,
      "ith": 352,
      "Ġst": 353,
      "ĠH": 354,
      "us": 355,
      "Ġ2": 356,
      "ay": 357,
      "Ġthat": 358,
      "Ġwith": 359,
      "her": 360,
      "ot": 361,
      "ce": 362,
      "ver": 363,
      "ut": 364,
      "ation": 365,
      "et": 366,
      "Ġis": 367,
      "ĠP": 368,
      "Ġwh": 369,
      "ch": 370,
      "Ġby": 371,
      "ĠR": 372,
      "Ġ)": 373,
      "Ġ(": 374,
      "Ġal": 375,
      "ĠF": 376,
      "ĠD": 377,
      "Ġcon": 378,
      "em": 379,
      "ul": 380,
      "ĠW": 381,
      "Ġat": 382,
      "Ġit": 383,
      "Ġ19": 384,
      "and": 385,
      "ain": 386,
      "rom": 387,
      "os": 388,
      "ĠN": 389,
      "Ġan": 390,
      "ĠG": 391,
      "ĠL": 392,
      "ers": 393,
      "Ġhe": 394,
      "est": 395,
      "ag": 396,
      "av": 397,
      "00": 398,
      "ĠJ": 399,
      "Ġse": 400,
      "um": 401,
      "Ġde": 402,
      "Ġhis": 403,
      "Ġr": 404,
      "Ġfrom": 405,
      "od": 406,
      "ĠO": 407,
      "ri": 408,
      "Ġcom": 409,
      "ĠE": 410,
      "pe": 411,
      "und": 412,
      "ist": 413,
      "Ġpro": 414,
      "if": 415,
      "ld": 416,
      "ies": 417,
      "ere": 418,
      "ort": 419,
      "Ġv": 420,
      "res": 421,
      "Ġsu": 422,
      "ore": 423,
      "Ġwere": 424,
      "ill": 425,
      "ĠIn": 426,
      "ap": 427,
      "ong": 428,
      "ew": 429,
      "op": 430,
      "igh": 431,
      "ich": 432,
      "Ġor": 433,
      "ate": 434,
      "art": 435,
      "all": 436,
      "ard": 437,
      "ak": 438,
      "Ġch": 439,
      "ber": 440,
      "ame": 441,
      "Ġex": 442,
      "gh": 443,
      "ab": 444,
      "ud": 445,
      "Ġpl": 446,
      "se": 447,
      "ated": 448,
      "ant": 449,
      "ity": 450,
      "Ġare": 451,
      "Ġâ": 452,
      "oc": 453,
      "ive": 454,
      "ess": 455,
      "qu": 456,
      "Ġsh": 457,
      "ĠâĢ": 458,
      "Ġhad": 459,
      "Ġk": 460,
      "ack": 461,
      "Ġwhich": 462,
      "up": 463,
      "ĠU": 464,
      "red": 465,
      "Ġy": 466,
      "ĠK": 467,
      "Ġle": 468,
      "ov": 469,
      "our": 470,
      "Ġnot": 471,
      "ment": 472,
      "ast": 473,
      "ip": 474,
      "ĠSt": 475,
      "rit": 476,
      "ord": 477,
      "ear": 478,
      "pt": 479,
      "Ġtr": 480,
      "ge": 481,
      "ally": 482,
      "ian": 483,
      "ther": 484,
      "ost": 485,
      "ine": 486,
      "ave": 487,
      "ight": 488,
      "oun": 489,
      "ell": 490,
      "Ġ3": 491,
      "ish": 492,
      "cl": 493,
      "ary": 494,
      "ĠCh": 495,
      "Ġ200": 496,
      "ust": 497,
      "irst": 498,
      "ia": 499,
      "Ġ;": 500,
      "pp": 501,
      "te": 502,
      "Ġcomp": 503,
      "Ġtheir": 504,
      "Ġbut": 505,
      "cc": 506,
      "so": 507,
      "ction": 508,
      "fter": 509,
      "Ġfirst": 510,
      "ous": 511,
      "ure": 512,
      "Ġits": 513,
      "ould": 514,
      "ra": 515,
      "ĠâĢĵ": 516,
      "ide": 517,
      "Ġwhe": 518,
      "Ġcont": 519,
      "Ġar": 520,
      "ue": 521,
      "ical": 522,
      "ome": 523,
      "Ġun": 524,
      "wo": 525,
      "og": 526,
      "hed": 527,
      "Ġ20": 528,
      "Ġ:": 529,
      "ial": 530,
      "ub": 531,
      "ie": 532,
      "Ġher": 533,
      "Ġalso": 534,
      "ition": 535,
      "Ġro": 536,
      "Ġint": 537,
      "ĠV": 538,
      "own": 539,
      "Ġcl": 540,
      "ater": 541,
      "out": 542,
      "ign": 543,
      "Ġus": 544,
      "orm": 545,
      "ork": 546,
      "Ġab": 547,
      "Ġad": 548,
      "ok": 549,
      "ff": 550,
      "per": 551,
      "Ġhave": 552,
      "age": 553,
      "ru": 554,
      "ire": 555,
      "ĠHe": 556,
      "Ġone": 557,
      "ass": 558,
      "Ġhas": 559,
      "Ġrec": 560,
      "low": 561,
      "mer": 562,
      "ime": 563,
      "Ġbeen": 564,
      "Ġtwo": 565,
      "Ġ4": 566,
      "du": 567,
      "Ġres": 568,
      "ĠTh": 569,
      "Ġ18": 570,
      ".@": 571,
      "Ġ@.@": 572,
      "Ġper": 573,
      "ond": 574,
      "Ġ5": 575,
      "ree": 576,
      "Ġbo": 577,
      "Ġwho": 578,
      "ence": 579,
      "uring": 580,
      "ough": 581,
      "land": 582,
      "ted": 583,
      "Ġthis": 584,
      "are": 585,
      "Ġbec": 586,
      "ile": 587,
      "ry": 588,
      "pl": 589,
      "ory": 590,
      "ance": 591,
      "ugh": 592,
      "ect": 593,
      "ĠIt": 594,
      "ans": 595,
      "Ġsc": 596,
      "Ġplay": 597,
      "ĠAl": 598,
      "Ġthey": 599,
      "clud": 600,
      "Ġyear": 601,
      "Ġ201": 602,
      "Ġpart": 603,
      "Ġag": 604,
      "ade": 605,
      "Ġdes": 606,
      "ations": 607,
      "Ġman": 608,
      "ric": 609,
      "Ġother": 610,
      "Ġdis": 611,
      "ult": 612,
      "Ġte": 613,
      "ely": 614,
      "Ġafter": 615,
      "ach": 616,
      "Ġj": 617,
      "Ġser": 618,
      "Ġover": 619,
      "over": 620,
      "Ġoff": 621,
      "Ġup": 622,
      ",@": 623,
      "Ġ@,@": 624,
      "ang": 625,
      "Ġinclud": 626,
      "Ġsp": 627,
      "ions": 628,
      "Ġen": 629,
      "ite": 630,
      "urn": 631,
      "act": 632,
      "ound": 633,
      "ount": 634,
      "Ġim": 635,
      "ace": 636,
      "ice": 637,
      "iz": 638,
      "ib": 639,
      "wn": 640,
      "Ġout": 641,
      "ke": 642,
      "ress": 643,
      "ĠY": 644,
      "ark": 645,
      "Ġtime": 646,
      "Ġne": 647,
      "Ġinto": 648,
      "Ġfin": 649,
      "Ġpre": 650,
      "Ġev": 651,
      "ced": 652,
      "port": 653,
      "we": 654,
      "ĠOn": 655,
      "Ġspe": 656,
      "ces": 657,
      "Ġwould": 658,
      "Ġmore": 659,
      "Ġshe": 660,
      "Ġcomm": 661,
      "ason": 662,
      "Ġatt": 663,
      "ward": 664,
      "rough": 665,
      "Ġall": 666,
      "ren": 667,
      "ose": 668,
      "one": 669,
      "ail": 670,
      "ited": 671,
      "Ġhim": 672,
      "amp": 673,
      "Ġwe": 674,
      "tern": 675,
      "ied": 676,
      "ens": 677,
      "oin": 678,
      "ased": 679,
      "Ġ6": 680,
      "ĠUn": 681,
      "Ġcent": 682,
      "rib": 683,
      "ĠRe": 684,
      "Ġwork": 685,
      "ents": 686,
      "ild": 687,
      "ĠSe": 688,
      "ix": 689,
      "Ġme": 690,
      "ood": 691,
      "ase": 692,
      "les": 693,
      "ings": 694,
      "ts": 695,
      "man": 696,
      "round": 697,
      "Ġ7": 698,
      "Ġfe": 699,
      "Ġthem": 700,
      "able": 701,
      "ious": 702,
      "Ġwhen": 703,
      "Ġbet": 704,
      "Ġsong": 705,
      "ake": 706,
      "ors": 707,
      "Ġsec": 708,
      "ates": 709,
      "als": 710,
      "vel": 711,
      "ubl": 712,
      "Ġear": 713,
      "Ġrem": 714,
      "ĠAn": 715,
      "old": 716,
      "iss": 717,
      "ered": 718,
      "Ġkn": 719,
      "form": 720,
      "Ġmost": 721,
      "Ġduring": 722,
      "gan": 723,
      "ath": 724,
      "aus": 725,
      "Ġonly": 726,
      "fer": 727,
      "under": 728,
      "ilm": 729,
      "Ġnew": 730,
      "Ġgame": 731,
      "oy": 732,
      "ved": 733,
      "ember": 734,
      "ve": 735,
      "orth": 736,
      "ollow": 737,
      "ween": 738,
      "Ġ199": 739,
      "reat": 740,
      "ĠAs": 741,
      "way": 742,
      "outh": 743,
      "ĠAr": 744,
      "Ġ9": 745,
      "Ġ8": 746,
      "Ġrel": 747,
      "Ġcan": 748,
      "Ġabout": 749,
      "ters": 750,
      "Ġagain": 751,
      "Ġseason": 752,
      "Ġthree": 753,
      "Ġcons": 754,
      "Ġthan": 755,
      "ĠEn": 756,
      "ick": 757,
      "ug": 758,
      "ĠMar": 759,
      "Ġbetween": 760,
      "att": 761,
      "aw": 762,
      "ral": 763,
      "Ġrecord": 764,
      "Ġsome": 765,
      "ational": 766,
      "Ġunder": 767,
      "ons": 768,
      "Ġchar": 769,
      "cted": 770,
      "ular": 771,
      "fore": 772,
      "Ġthrough": 773,
      "ind": 774,
      "ict": 775,
      "Ġlater": 776,
      "hip": 777,
      "iew": 778,
      "Ġcol": 779,
      "Ġnum": 780,
      "Ġ00": 781,
      "ĠCom": 782,
      "ft": 783,
      "ision": 784,
      "Ġwrit": 785,
      "Ġwhile": 786,
      "ĠDe": 787,
      "Ġprodu": 788,
      "Ġpos": 789,
      "Ġfilm": 790,
      "Ġrele": 791,
      "Ġver": 792,
      "ames": 793,
      "Ġend": 794,
      "Ġinter": 795,
      "ished": 796,
      "Ġap": 797,
      "ey": 798,
      "Ġpe": 799,
      "Ġmade": 800,
      "Ġpr": 801,
      "Ġform": 802,
      "ning": 803,
      "Ġfl": 804,
      "Ġreg": 805,
      "Ġass": 806,
      "orld": 807,
      "Ġwhere": 808,
      "Ġso": 809,
      "Ġspec": 810,
      "ĠNew": 811,
      "Ġmov": 812,
      "ever": 813,
      "meric": 814,
      "ĠAmeric": 815,
      "ury": 816,
      "Ġlar": 817,
      "bum": 818,
      "Ġac": 819,
      "Ġapp": 820,
      "Ġret": 821,
      "ron": 822,
      "Ġfollow": 823,
      "ener": 824,
      "Ġno": 825,
      "Ġbu": 826,
      "Ġsuch": 827,
      "Ġdef": 828,
      "Ġsecond": 829,
      "ived": 830,
      "Ġfour": 831,
      "ock": 832,
      "aid": 833,
      "Ġmus": 834,
      "Ġqu": 835,
      "Ġacc": 836,
      "Ġused": 837,
      "Ġsub": 838,
      "olog": 839,
      "Ġinc": 840,
      "Ġact": 841,
      "ike": 842,
      "ĠAt": 843,
      "rop": 844,
      "Ġday": 845,
      "ĠThis": 846,
      "ars": 847,
      "ĠLe": 848,
      "Ġpubl": 849,
      "ific": 850,
      "Ġam": 851,
      "ual": 852,
      "Ġcall": 853,
      "Ġalbum": 854,
      "Ġind": 855,
      "hes": 856,
      "Ġ000": 857,
      "Ġbefore": 858,
      "Ġdo": 859,
      "Ġappe": 860,
      "ob": 861,
      "ily": 862,
      "oh": 863,
      "Ġbeing": 864,
      "ank": 865,
      "Ġgr": 866,
      "Ġco": 867,
      "any": 868,
      "Ġyears": 869,
      "ĠEng": 870,
      "Ġthere": 871,
      "Ġsupp": 872,
      "Ġgro": 873,
      "end": 874,
      "ck": 875,
      "owever": 876,
      "ating": 877,
      "ane": 878,
      "Ġfound": 879,
      "Ġ0": 880,
      "Ġele": 881,
      "Ġhigh": 882,
      "Ġset": 883,
      "iel": 884,
      "Ġep": 885,
      "ife": 886,
      "ics": 887,
      "orn": 888,
      "hen": 889,
      "Ġsy": 890,
      "ird": 891,
      "Ġent": 892,
      "other": 893,
      "iver": 894,
      "Ġsur": 895,
      "ained": 896,
      "Ġ10": 897,
      "Ġseries": 898,
      "igin": 899,
      "Ġnumber": 900,
      "pen": 901,
      "ten": 902,
      "ll": 903,
      "ince": 904,
      "Ġloc": 905,
      "ause": 906,
      "Ġdec": 907,
      "Ġpres": 908,
      "ph": 909,
      "velop": 910,
      "Ġboth": 911,
      "ode": 912,
      "Ġsever": 913,
      "ities": 914,
      "cept": 915,
      "Ġ12": 916,
      "Ġthen": 917,
      "Ġincluding": 918,
      "ines": 919,
      "Ġepis": 920,
      "son": 921,
      "ĠBrit": 922,
      "Ġ/": 923,
      "Ġagainst": 924,
      "Ġwell": 925,
      "Ġbecame": 926,
      "Ġknown": 927,
      "ject": 928,
      "ĠâĢĶ": 929,
      "ros": 930,
      "ised": 931,
      "Ġpo": 932,
      "ton": 933,
      "Ġcharac": 934,
      "Ġadd": 935,
      "Ġperform": 936,
      "Ġdesc": 937,
      "Ġsing": 938,
      "Ġbl": 939,
      "Ġgo": 940,
      "Ġcap": 941,
      "Ġ198": 942,
      "Ġdire": 943,
      "urch": 944,
      "ĠJoh": 945,
      "aj": 946,
      "Ġ16": 947,
      "ale": 948,
      "Ġback": 949,
      "Ġmany": 950,
      "ĠSh": 951,
      "Ġpop": 952,
      "pr": 953,
      "Ġmain": 954,
      "ident": 955,
      "though": 956,
      "ĠUnited": 957,
      "Ġinv": 958,
      "Ġstud": 959,
      "its": 960,
      "Ġlong": 961,
      "ise": 962,
      "ather": 963,
      "ures": 964,
      "Ġtrans": 965,
      "Ġorigin": 966,
      "io": 967,
      "ĠJohn": 968,
      "ĠBr": 969,
      "iet": 970,
      "ert": 971,
      "ement": 972,
      "Ġcentury": 973,
      "Ġmon": 974,
      "Ġteam": 975,
      "ober": 976,
      "ĠAfter": 977,
      "ool": 978,
      "ĠSc": 979,
      "Ġest": 980,
      "Ġdevelop": 981,
      "Ġshow": 982,
      "ann": 983,
      "Ġmin": 984,
      "ield": 985,
      "ek": 986,
      "ower": 987,
      "Ġem": 988,
      "ier": 989,
      "elf": 990,
      "Ġ194": 991,
      "air": 992,
      "ute": 993,
      "Ġcre": 994,
      "Ġseveral": 995,
      "ĠShe": 996,
      "Ġlead": 997,
      "uch": 998,
      "Ġ17": 999,
      "ared": 1000,
      "Ġbegan": 1001,
      "Ġ196": 1002,
      "ful": 1003,
      "ivers": 1004,
      "ern": 1005,
      "Ġ11": 1006,
      "Ġ15": 1007,
      "Ġmill": 1008,
      "Ġdif": 1009,
      "Ġcontin": 1010,
      "Ġ197": 1011,
      "overn": 1012,
      "Ġsign": 1013,
      "ually": 1014,
      "ram": 1015,
      "view": 1016,
      "Ġsm": 1017,
      "ired": 1018,
      "ative": 1019,
      "Ġmay": 1020,
      "Ġship": 1021,
      "Ġcomple": 1022,
      "Ġbr": 1023,
      "Ġcould": 1024,
      "Ġearly": 1025,
      "Ġcrit": 1026,
      "Ġdid": 1027,
      "Ġcalled": 1028,
      "ains": 1029,
      "Ġart": 1030,
      "Ġepisode": 1031,
      "til": 1032,
      "Ġnear": 1033,
      "Ġob": 1034,
      "ĠInd": 1035,
      "Ġhist": 1036,
      "Ġpol": 1037,
      "Ġdescrib": 1038,
      "led": 1039,
      "Ġbel": 1040,
      "emb": 1041,
      "ued": 1042,
      "Ġrece": 1043,
      "ople": 1044,
      "iam": 1045,
      "une": 1046,
      "Ġalong": 1047,
      "Ġrun": 1048,
      "ins": 1049,
      "Ġter": 1050,
      "imes": 1051,
      "ments": 1052,
      "Ġdep": 1053,
      "Ġbro": 1054,
      "ccess": 1055,
      "Ġsaid": 1056,
      "ley": 1057,
      "ĠWh": 1058,
      "Ġfeat": 1059,
      "ĠAmerican": 1060,
      "Ġdown": 1061,
      "ven": 1062,
      "ĠIs": 1063,
      "Ġinst": 1064,
      "Ġthese": 1065,
      "aking": 1066,
      "ĠMay": 1067,
      "der": 1068,
      "Ġmil": 1069,
      "Ġdist": 1070,
      "ĠAust": 1071,
      "Ġthough": 1072,
      "gest": 1073,
      "ĠGer": 1074,
      "ross": 1075,
      "Ġdisc": 1076,
      "yl": 1077,
      "ĠBritish": 1078,
      "Ġoper": 1079,
      "Ġuntil": 1080,
      "ĠZ": 1081,
      "ove": 1082,
      "ting": 1083,
      "oot": 1084,
      "Ġstart": 1085,
      "anc": 1086,
      "Ġcity": 1087,
      "Ġsame": 1088,
      "rap": 1089,
      "Ġinf": 1090,
      "ured": 1091,
      "Ġprev": 1092,
      "Ġreleased": 1093,
      "els": 1094,
      "Ġgener": 1095,
      "ty": 1096,
      "ange": 1097,
      "Ġexp": 1098,
      "Ġown": 1099,
      "ized": 1100,
      "Ġany": 1101,
      "Ġreturn": 1102,
      "tend": 1103,
      "amed": 1104,
      "ĠThey": 1105,
      "ially": 1106,
      "ĠWar": 1107,
      "Ġkm": 1108,
      "ided": 1109,
      "Ġland": 1110,
      "Ġdesign": 1111,
      "Ġwar": 1112,
      "Ġrep": 1113,
      "Ġmusic": 1114,
      "Ġprov": 1115,
      "Ġimp": 1116,
      "Ġmillion": 1117,
      "Ġbecause": 1118,
      "Ġarea": 1119,
      "Ġuse": 1120,
      "ajor": 1121,
      "ĠCon": 1122,
      "Ġcar": 1123,
      "Ġfam": 1124,
      "Ġair": 1125,
      "az": 1126,
      "ĠAug": 1127,
      "ĠAugust": 1128,
      "oman": 1129,
      "Ġlike": 1130,
      "Ġopen": 1131,
      "Ġsuccess": 1132,
      "Ġmat": 1133,
      "osed": 1134,
      "Ġsim": 1135,
      "ĠFr": 1136,
      "ĠChr": 1137,
      "Ġocc": 1138,
      "erson": 1139,
      "ink": 1140,
      "ep": 1141,
      "enn": 1142,
      "Ġconst": 1143,
      "ook": 1144,
      "Ġpeople": 1145,
      "ull": 1146,
      "Ġeff": 1147,
      "hy": 1148,
      "ium": 1149,
      "Ġins": 1150,
      "Ġpass": 1151,
      "chool": 1152,
      "Ġoffic": 1153,
      "stem": 1154,
      "ible": 1155,
      "xt": 1156,
      "Ġsix": 1157,
      "Ġcount": 1158,
      "Ġ195": 1159,
      "Ġsupport": 1160,
      "ĠBl": 1161,
      "ĠBe": 1162,
      "Ġaround": 1163,
      "my": 1164,
      "ĠHowever": 1165,
      "Ġsmall": 1166,
      "ah": 1167,
      "Ġwin": 1168,
      "Ġ%": 1169,
      "ĠSept": 1170,
      "uc": 1171,
      "Ġnorth": 1172,
      "Ġadv": 1173,
      "Ġdam": 1174,
      "Ġgroup": 1175,
      "Ġstr": 1176,
      "ĠCar": 1177,
      "Ġpoin": 1178,
      "Ġeach": 1179,
      "ĠSeptember": 1180,
      "ues": 1181,
      "ony": 1182,
      "Ġconsid": 1183,
      "Ġmet": 1184,
      "ouse": 1185,
      "Ġfollowing": 1186,
      "ĠPl": 1187,
      "Ġcharacter": 1188,
      "ĠJu": 1189,
      "erv": 1190,
      "ists": 1191,
      "wards": 1192,
      "ĠWorld": 1193,
      "Ġlife": 1194,
      "ms": 1195,
      "Ġed": 1196,
      "ĠAustral": 1197,
      "Ġhead": 1198,
      "Ġ13": 1199,
      "aining": 1200,
      "Ġfive": 1201,
      "Ġmod": 1202,
      "Ġcontro": 1203,
      "Ġgovern": 1204,
      "Ġattack": 1205,
      "ole": 1206,
      "Ġ193": 1207,
      "ording": 1208,
      "ĠComm": 1209,
      "ient": 1210,
      "ales": 1211,
      "Ġvar": 1212,
      "oss": 1213,
      "uth": 1214,
      "ĠAll": 1215,
      "Ġwill": 1216,
      "ĠTe": 1217,
      "Ġlarge": 1218,
      "Ġever": 1219,
      "ution": 1220,
      "ets": 1221,
      "Ġ191": 1222,
      "ĠII": 1223,
      "ĠHer": 1224,
      "Ġgu": 1225,
      "ĠCol": 1226,
      "Ġann": 1227,
      "Ġreport": 1228,
      "row": 1229,
      "Ġconc": 1230,
      "ague": 1231,
      "ural": 1232,
      "ĠUS": 1233,
      "ĠMe": 1234,
      "ĠCl": 1235,
      "rote": 1236,
      "lish": 1237,
      "ĠJune": 1238,
      "Ġbook": 1239,
      "ĠNorth": 1240,
      "aving": 1241,
      "aced": 1242,
      "ĠEu": 1243,
      "ash": 1244,
      "ĠFor": 1245,
      "Ġtit": 1246,
      "ĠGerman": 1247,
      "dom": 1248,
      "Ġsince": 1249,
      "ĠStates": 1250,
      "ik": 1251,
      "Ġprom": 1252,
      "Ġsouth": 1253,
      "Ġreceived": 1254,
      "Ġmajor": 1255,
      "Ġfinal": 1256,
      "ilt": 1257,
      "med": 1258,
      "ped": 1259,
      "Ġname": 1260,
      "ately": 1261,
      "ivision": 1262,
      "ĠJan": 1263,
      "ĠAd": 1264,
      "pect": 1265,
      "ĠOct": 1266,
      "Ġpartic": 1267,
      "Ġsystem": 1268,
      "ĠSouth": 1269,
      "Ġpublic": 1270,
      "Ġcare": 1271,
      "Ġstate": 1272,
      "Ġdr": 1273,
      "ĠChrist": 1274,
      "Ġwhat": 1275,
      "ĠKing": 1276,
      "ives": 1277,
      "Ġdirect": 1278,
      "uary": 1279,
      "Ġlast": 1280,
      "Ġhel": 1281,
      "Ġdescribed": 1282,
      "tle": 1283,
      "hel": 1284,
      "Ġext": 1285,
      "ĠOctober": 1286,
      "ored": 1287,
      "Ġ14": 1288,
      "Ġline": 1289,
      "Ġ$": 1290,
      "Ġappear": 1291,
      "Ġrest": 1292,
      "ĠCan": 1293,
      "Ġbatt": 1294,
      "Ġweek": 1295,
      "Ġplayed": 1296,
      "cess": 1297,
      "Ġclass": 1298,
      "Ġbuild": 1299,
      "Ġincre": 1300,
      "Ġtook": 1301,
      "ropical": 1302,
      "Ġnow": 1303,
      "ĠFe": 1304,
      "ĠNov": 1305,
      "arl": 1306,
      "Ġ[": 1307,
      "Ġ]": 1308,
      "ĠYork": 1309,
      "gin": 1310,
      "Ġworld": 1311,
      "aged": 1312,
      "ĠJuly": 1313,
      "Ġwrote": 1314,
      "Ġlate": 1315,
      "ages": 1316,
      "..": 1317,
      "ĠTr": 1318,
      "iving": 1319,
      "empt": 1320,
      "Ã©": 1321,
      "ional": 1322,
      "ble": 1323,
      "Ġwon": 1324,
      "Ġspecies": 1325,
      "ology": 1326,
      "ideo": 1327,
      "Ġstru": 1328,
      "aim": 1329,
      "Ġchild": 1330,
      "Ġ...": 1331,
      "Ġmuch": 1332,
      "Ġ25": 1333,
      "ĠDuring": 1334,
      "Ġdue": 1335,
      "ody": 1336,
      "ified": 1337,
      "Ġserv": 1338,
      "ĠApr": 1339,
      "Ġsingle": 1340,
      "ĠApril": 1341,
      "Ġcamp": 1342,
      "Ġallow": 1343,
      "ats": 1344,
      "iod": 1345,
      "min": 1346,
      "ĠGu": 1347,
      "Ġshort": 1348,
      "Ġport": 1349,
      "Ġdeath": 1350,
      "Ġvers": 1351,
      "Ġjust": 1352,
      "ball": 1353,
      "Ġty": 1354,
      "Ġmar": 1355,
      "Ġanother": 1356,
      "Ġincluded": 1357,
      "ĠEuro": 1358,
      "Ġposs": 1359,
      "ĠJanuary": 1360,
      "Ġold": 1361,
      "ility": 1362,
      "ively": 1363,
      "Ġstorm": 1364,
      "get": 1365,
      "Ġeven": 1366,
      "Ġdiffer": 1367,
      "Ġgun": 1368,
      "Ġwithin": 1369,
      "ĠEngland": 1370,
      "Ġlist": 1371,
      "ission": 1372,
      "Ġleft": 1373,
      "Ġresult": 1374,
      "ism": 1375,
      "omin": 1376,
      "Ġposition": 1377,
      "Ġnamed": 1378,
      "Ġbased": 1379,
      "Ġestab": 1380,
      "Ġif": 1381,
      "Ġconf": 1382,
      "ants": 1383,
      "Ġarr": 1384,
      "Ġalthough": 1385,
      "Ġvis": 1386,
      "Ġprog": 1387,
      "Ġattempt": 1388,
      "ax": 1389,
      "ont": 1390,
      "Ġ30": 1391,
      "Ġvery": 1392,
      "Ġappro": 1393,
      "ina": 1394,
      "Ġthird": 1395,
      "Ġgames": 1396,
      "by": 1397,
      "ital": 1398,
      "Ġtop": 1399,
      "Ġref": 1400,
      "ĠAnd": 1401,
      "akes": 1402,
      "Ġbelie": 1403,
      "Ġtrack": 1404,
      "ctions": 1405,
      "ĠMarch": 1406,
      "ner": 1407,
      "ple": 1408,
      "Ġlit": 1409,
      "ĠGr": 1410,
      "Ġprevious": 1411,
      "Ġfamily": 1412,
      "ĠMus": 1413,
      "ĠPro": 1414,
      "ĠNovember": 1415,
      "Ġpower": 1416,
      "Ġtri": 1417,
      "Ġreview": 1418,
      "Ġperiod": 1419,
      "Ġevent": 1420,
      "ĠQ": 1421,
      "Ġbest": 1422,
      "Ġhome": 1423,
      "ĠGe": 1424,
      "mber": 1425,
      "Ġway": 1426,
      "ilar": 1427,
      "urric": 1428,
      "Ġschool": 1429,
      "Ġresp": 1430,
      "ĠRo": 1431,
      "ĠEurope": 1432,
      "Ġwater": 1433,
      "ĠHis": 1434,
      "Ġgovernment": 1435,
      "ances": 1436,
      "ograp": 1437,
      "ently": 1438,
      "cember": 1439,
      "Ġexpl": 1440,
      "ĠDecember": 1441,
      "Ġ192": 1442,
      "Ġmen": 1443,
      "ret": 1444,
      "Ġthose": 1445,
      "avy": 1446,
      "raft": 1447,
      "ĠThere": 1448,
      "ĠBy": 1449,
      "ger": 1450,
      "Ġturn": 1451,
      "Ġconstru": 1452,
      "ience": 1453,
      "Ġhum": 1454,
      "Ġplace": 1455,
      "ĠCity": 1456,
      "ulation": 1457,
      "Ġorgan": 1458,
      "Ġsl": 1459,
      "Ġbuilt": 1460,
      "ature": 1461,
      "Ġbre": 1462,
      "pend": 1463,
      "ards": 1464,
      "urther": 1465,
      "Ġgreat": 1466,
      "ians": 1467,
      "ides": 1468,
      "Ġstory": 1469,
      "Ġprote": 1470,
      "Ġcommand": 1471,
      "ached": 1472,
      "Ġkill": 1473,
      "Ġmonth": 1474,
      "ĠWhen": 1475,
      "Ġcolle": 1476,
      "ched": 1477,
      "hest": 1478,
      "Ġsent": 1479,
      "Ġperson": 1480,
      "Ġoriginal": 1481,
      "ript": 1482,
      "iversity": 1483,
      "itary": 1484,
      "Ġmake": 1485,
      "Ġhand": 1486,
      "Ġopp": 1487,
      "eder": 1488,
      "Ġ100": 1489,
      "Ġ2009": 1490,
      "Ġ2010": 1491,
      "Ġmed": 1492,
      "Ġvideo": 1493,
      "ĠNational": 1494,
      "ĠÂ": 1495,
      "Ġ2008": 1496,
      "Ġauth": 1497,
      "Ġrequ": 1498,
      "Ġhal": 1499,
      "ention": 1500,
      "Ġpresent": 1501,
      "oci": 1502,
      "aur": 1503,
      "por": 1504,
      "Ġmark": 1505,
      "Ġph": 1506,
      "Ġsug": 1507,
      "ham": 1508,
      "Ġclub": 1509,
      "Ġeng": 1510,
      "ences": 1511,
      "riend": 1512,
      "iven": 1513,
      "aster": 1514,
      "elt": 1515,
      "ene": 1516,
      "Ġview": 1517,
      "ĠMc": 1518,
      "ically": 1519,
      "self": 1520,
      "ĠRiver": 1521,
      "Ġmoved": 1522,
      "Ġled": 1523,
      "Ġrole": 1524,
      "Ġaddition": 1525,
      "Ġcapt": 1526,
      "Ġstand": 1527,
      "Ġstill": 1528,
      "Ġcame": 1529,
      "Ġleg": 1530,
      "Ġlocal": 1531,
      "Ġiss": 1532,
      "Ġrepl": 1533,
      "rench": 1534,
      "gy": 1535,
      "ense": 1536,
      "ĠPr": 1537,
      "aff": 1538,
      "Ġoften": 1539,
      "Ġhistory": 1540,
      "urricane": 1541,
      "Ġcommon": 1542,
      "Ġcaus": 1543,
      "Ġdest": 1544,
      "ival": 1545,
      "ĠWe": 1546,
      "Ġcour": 1547,
      "ae": 1548,
      "ison": 1549,
      "ĠMan": 1550,
      "Ġdem": 1551,
      "aken": 1552,
      "Ġeffect": 1553,
      "ery": 1554,
      "Ġfew": 1555,
      "be": 1556,
      "ĠBo": 1557,
      "ady": 1558,
      "ĠNo": 1559,
      "ops": 1560,
      "Ġ2007": 1561,
      "Ġnext": 1562,
      "Ġconsidered": 1563,
      "ĠFl": 1564,
      "Ġtrad": 1565,
      "ories": 1566,
      "eng": 1567,
      "Ġplayer": 1568,
      "Ġsuggest": 1569,
      "ling": 1570,
      "lev": 1571,
      "Ġstar": 1572,
      "astern": 1573,
      "ĠSp": 1574,
      "ĠFrench": 1575,
      "Ġexper": 1576,
      "side": 1577,
      "Ġmy": 1578,
      "Ġsimilar": 1579,
      "Ġcareer": 1580,
      "ĠOne": 1581,
      "Ġrecorded": 1582,
      "ĠEnglish": 1583,
      "Ġside": 1584,
      "uss": 1585,
      "Ġright": 1586,
      "ĠPe": 1587,
      "ined": 1588,
      "Ġcr": 1589,
      "Ġinit": 1590,
      "let": 1591,
      "Ġimport": 1592,
      "Ġreal": 1593,
      "ĠOr": 1594,
      "Ġclaim": 1595,
      "que": 1596,
      "ĠBatt": 1597,
      "Ġcompany": 1598,
      "ai": 1599,
      "Ġcover": 1600,
      "Ġpublished": 1601,
      "ĠBro": 1602,
      "Ġdeb": 1603,
      "Ġcontinued": 1604,
      "Ġcontr": 1605,
      "rew": 1606,
      "arn": 1607,
      "idge": 1608,
      "Ġrefer": 1609,
      "Ġyou": 1610,
      "Ġtake": 1611,
      "Ġbas": 1612,
      "Ġwithout": 1613,
      "Ġsold": 1614,
      "Ġmid": 1615,
      "ĠPh": 1616,
      "ternational": 1617,
      "Ġsongs": 1618,
      "Ġdifferent": 1619,
      "Ġsay": 1620,
      "Ġtown": 1621,
      "Ġformer": 1622,
      "ĠWith": 1623,
      "Ġant": 1624,
      "ior": 1625,
      "Ġwind": 1626,
      "Ġheld": 1627,
      "ĠComp": 1628,
      "atter": 1629,
      "ister": 1630,
      "uted": 1631,
      "ĠAcc": 1632,
      "Ġamong": 1633,
      "ness": 1634,
      "Ġmemb": 1635,
      "Ġlevel": 1636,
      "lu": 1637,
      "Ġtot": 1638,
      "Ġarch": 1639,
      "Ġroad": 1640,
      "Ġtem": 1641,
      "Ġpolit": 1642,
      "Ġfield": 1643,
      "ged": 1644,
      "Ġwritten": 1645,
      "arch": 1646,
      "thing": 1647,
      "ĠState": 1648,
      "bs": 1649,
      "Ġplan": 1650,
      "Ġevery": 1651,
      "ps": 1652,
      "Ġes": 1653,
      "ĠPort": 1654,
      "Ġhalf": 1655,
      "alk": 1656,
      "Ġ21": 1657,
      "ĠDivision": 1658,
      "ampions": 1659,
      "Ġtw": 1660,
      "Ġ2011": 1661,
      "Ġrelease": 1662,
      "resent": 1663,
      "ves": 1664,
      "estern": 1665,
      "iment": 1666,
      "ĠWill": 1667,
      "ead": 1668,
      "Ġbecome": 1669,
      "Ġav": 1670,
      "Ġfurther": 1671,
      "Ġmag": 1672,
      "Ġ2006": 1673,
      "Ġcommun": 1674,
      "tended": 1675,
      "ĠAccording": 1676,
      "ĠAlthough": 1677,
      "ensive": 1678,
      "Ġwest": 1679,
      "Ġhowever": 1680,
      "Ġchurch": 1681,
      "Ġ23": 1682,
      "Ġdays": 1683,
      "Ġstrong": 1684,
      "ĠCanad": 1685,
      "yle": 1686,
      "itar": 1687,
      "Ġeast": 1688,
      "Ġfind": 1689,
      "Ġversion": 1690,
      "roy": 1691,
      "lear": 1692,
      "Ġjoin": 1693,
      "ung": 1694,
      "br": 1695,
      "bru": 1696,
      "Ġ&": 1697,
      "ott": 1698,
      "ried": 1699,
      "ĠChurch": 1700,
      "Ġcompet": 1701,
      "Ġtitle": 1702,
      "ĠCount": 1703,
      "Ġparticular": 1704,
      "ne": 1705,
      "pite": 1706,
      "mp": 1707,
      "Ġlow": 1708,
      "Ġmilitary": 1709,
      "Ġpar": 1710,
      "Ġdel": 1711,
      "par": 1712,
      "Ġbeh": 1713,
      "rodu": 1714,
      "ĠRoman": 1715,
      "Ġorder": 1716,
      "ĠLeague": 1717,
      "Ġauthor": 1718,
      "Ġprop": 1719,
      "ĠMin": 1720,
      "Ġdefe": 1721,
      "Ġcontrol": 1722,
      "Ġfoot": 1723,
      "aly": 1724,
      "outher": 1725,
      "ĠSong": 1726,
      "ĠFebru": 1727,
      "outhern": 1728,
      "ĠFebruary": 1729,
      "ĠPer": 1730,
      "ĠGener": 1731,
      "Ġtimes": 1732,
      "fric": 1733,
      "Ġgave": 1734,
      "Ġ22": 1735,
      "Ġless": 1736,
      "Ġ!": 1737,
      "Ġsit": 1738,
      "Ġ26": 1739,
      "Ġreported": 1740,
      "Ġmembers": 1741,
      "Ġfr": 1742,
      "Ġband": 1743,
      "ĠDyl": 1744,
      "Ġvict": 1745,
      "raw": 1746,
      "ĠDylan": 1747,
      "Ġ24": 1748,
      "ots": 1749,
      "Ġchang": 1750,
      "ĠGeor": 1751,
      "Ġfore": 1752,
      "ĠAb": 1753,
      "Ġnort": 1754,
      "Ġproduced": 1755,
      "ches": 1756,
      "Ġ2012": 1757,
      "levision": 1758,
      "Ġprof": 1759,
      "Ġel": 1760,
      "Ġtotal": 1761,
      "augh": 1762,
      "ices": 1763,
      "ĠPark": 1764,
      "ĠOld": 1765,
      "ailed": 1766,
      "ering": 1767,
      "urs": 1768,
      "Ġstat": 1769,
      "ĠWest": 1770,
      "line": 1771,
      "aces": 1772,
      "Ġproduction": 1773,
      "Ġpopular": 1774,
      "iety": 1775,
      "Ġfre": 1776,
      "Ġdecl": 1777,
      "ception": 1778,
      "Ġtropical": 1779,
      "ĠBar": 1780,
      "Ġnov": 1781,
      "ront": 1782,
      "hern": 1783,
      "oung": 1784,
      "Ġproject": 1785,
      "Ġsol": 1786,
      "Ġforces": 1787,
      "ĠJap": 1788,
      "itions": 1789,
      "Ġpoint": 1790,
      "Ġchildren": 1791,
      "ĠJapan": 1792,
      "Ġcur": 1793,
      "Ġcult": 1794,
      "Ġhaving": 1795,
      "ĠPar": 1796,
      "Ġinclude": 1797,
      "reen": 1798,
      "Ġcritic": 1799,
      "Ġobs": 1800,
      "Ġhistor": 1801,
      "pec": 1802,
      "ler": 1803,
      "Ġ28": 1804,
      "Ġinvol": 1805,
      "ĠX": 1806,
      "alion": 1807,
      "Ġlost": 1808,
      "Ġinflu": 1809,
      "Ġgiven": 1810,
      "Ġwant": 1811,
      "ĠAss": 1812,
      "inc": 1813,
      "ression": 1814,
      "Ġcountry": 1815,
      "sh": 1816,
      "Ġtro": 1817,
      "Ġfire": 1818,
      "Ġsignific": 1819,
      "Ġrepresent": 1820,
      "Ġmanag": 1821,
      "ape": 1822,
      "omen": 1823,
      "ize": 1824,
      "Ġ2013": 1825,
      "ĠSim": 1826,
      "chn": 1827,
      "Ġsite": 1828,
      "omet": 1829,
      "Ġseen": 1830,
      "osp": 1831,
      "Ġeight": 1832,
      "ĠDes": 1833,
      "Ġprogram": 1834,
      "Ġmaking": 1835,
      "ĠAm": 1836,
      "vers": 1837,
      "Ġnever": 1838,
      "Ġfar": 1839,
      "ĠMiss": 1840,
      "Ġstated": 1841,
      "Ġestabl": 1842,
      "Ġpress": 1843,
      "Ġdet": 1844,
      "ĠAfric": 1845,
      "Ġcomb": 1846,
      "ĠEd": 1847,
      "ĠGeneral": 1848,
      "Ġbody": 1849,
      "Ġshould": 1850,
      "Ġaff": 1851,
      "ĠCent": 1852,
      "ĠWhile": 1853,
      "Ġmatch": 1854,
      "ither": 1855,
      "Ġfact": 1856,
      "ploy": 1857,
      "Ġreturned": 1858,
      "reet": 1859,
      "ising": 1860,
      "Ġpat": 1861,
      "ĠDav": 1862,
      "ĠUniversity": 1863,
      "rent": 1864,
      "craft": 1865,
      "Ġfem": 1866,
      "enc": 1867,
      "Ġord": 1868,
      "Ġft": 1869,
      "Ġpost": 1870,
      "ĠPol": 1871,
      "ours": 1872,
      "ĠThese": 1873,
      "Ġ190": 1874,
      "ĠAmerica": 1875,
      "ĠEar": 1876,
      "Ġships": 1877,
      "Ġestablished": 1878,
      "Ġsound": 1879,
      "Ġhow": 1880,
      "Ġisland": 1881,
      "sequ": 1882,
      "Ġearl": 1883,
      "ampionship": 1884,
      "Ġpopulation": 1885,
      "Ġannoun": 1886,
      "Ġreached": 1887,
      "Ġequ": 1888,
      "ĠSte": 1889,
      "Ġstruct": 1890,
      "ĠJack": 1891,
      "Ġchart": 1892,
      "Ġ50": 1893,
      "Ġaway": 1894,
      "reland": 1895,
      "Ġsoc": 1896,
      "ades": 1897,
      "ĠIreland": 1898,
      "ably": 1899,
      "Ġnoted": 1900,
      "ĠAir": 1901,
      "igade": 1902,
      "ĠHa": 1903,
      "Ġtoo": 1904,
      "play": 1905,
      "aul": 1906,
      "ope": 1907,
      "Ġfriend": 1908,
      "Ġgod": 1909,
      "Ġground": 1910,
      "Ġthroughout": 1911,
      "Ġacross": 1912,
      "Ġdeveloped": 1913,
      "Ġthought": 1914,
      "Ġlight": 1915,
      "ĠEv": 1916,
      "fic": 1917,
      "ox": 1918,
      "Ġseven": 1919,
      "me": 1920,
      "Ġgen": 1921,
      "Ġ27": 1922,
      "ĠLond": 1923,
      "Ġintrodu": 1924,
      "ĠLondon": 1925,
      "Ġdiv": 1926,
      "Ġusing": 1927,
      "Ġhimself": 1928,
      "ground": 1929,
      "Ġdevelopment": 1930,
      "ĠNe": 1931,
      "ĠWilliam": 1932,
      "Ġgood": 1933,
      "Ġdestroy": 1934,
      "Ġla": 1935,
      "ĠFeder": 1936,
      "ford": 1937,
      "Ġhig": 1938,
      "Ġlim": 1939,
      "aint": 1940,
      "ument": 1941,
      "most": 1942,
      "Ġfelt": 1943,
      "ese": 1944,
      "ĠMich": 1945,
      "Ġsignificant": 1946,
      "used": 1947,
      "reek": 1948,
      "ĠAustralia": 1949,
      "yn": 1950,
      "idence": 1951,
      "ctor": 1952,
      "ological": 1953,
      "Ġperformed": 1954,
      "Ġimportant": 1955,
      "au": 1956,
      "Ġcast": 1957,
      "work": 1958,
      "Ġpra": 1959,
      "amb": 1960,
      "Ġwriting": 1961,
      "ĠAtl": 1962,
      "Ġmiles": 1963,
      "Ġcou": 1964,
      "Ġfather": 1965,
      "arr": 1966,
      "ords": 1967,
      "Ġtelevision": 1968,
      "oon": 1969,
      "Ġide": 1970,
      "int": 1971,
      "ream": 1972,
      "Ġinterest": 1973,
      "ĠBlack": 1974,
      "Ġvarious": 1975,
      "atic": 1976,
      "ivil": 1977,
      "Ġareas": 1978,
      "Ġhuman": 1979,
      "imately": 1980,
      "Ġtour": 1981,
      "Ġnight": 1982,
      "Ġblack": 1983,
      "ones": 1984,
      "Ġfull": 1985,
      "Ġdied": 1986,
      "Ġtyp": 1987,
      "Ġwent": 1988,
      "Ġlook": 1989,
      "utes": 1990,
      "Ġprot": 1991,
      "Ġwat": 1992,
      "Ġwhite": 1993,
      "ĠRich": 1994,
      "Ġrad": 1995,
      "ĠChar": 1996,
      "aren": 1997,
      "Ġactiv": 1998,
      "Ġdoes": 1999,
      "Ġsuccessful": 2000,
      "aign": 2001,
      "ĠRober": 2002,
      "Ġevents": 2003,
      "Ġneed": 2004,
      "ĠReg": 2005,
      "Ġsk": 2006,
      "Ġlaw": 2007,
      "ief": 2008,
      "ĠRoad": 2009,
      "Ġplayers": 2010,
      "Ġstarted": 2011,
      "ges": 2012,
      "ĠRoy": 2013,
      "ĠJames": 2014,
      "Ġmodern": 2015,
      "Ġten": 2016,
      "ask": 2017,
      "Ġmm": 2018,
      "Ġdiscover": 2019,
      "Ġsee": 2020,
      "Ġfeet": 2021,
      "Ġformed": 2022,
      "Ġcor": 2023,
      "itive": 2024,
      "Ġpoem": 2025,
      "tain": 2026,
      "Ġrange": 2027,
      "antic": 2028,
      "Ġconv": 2029,
      "Ġperformance": 2030,
      "ĠCounty": 2031,
      "Ġmix": 2032,
      "Ġhouse": 2033,
      "Ġstyle": 2034,
      "rick": 2035,
      "Ġrelations": 2036,
      "Ġbuilding": 2037,
      "Ġball": 2038,
      "Ġcaused": 2039,
      "Ġcat": 2040,
      "Ġforce": 2041,
      "na": 2042,
      "Ġage": 2043,
      "Ġread": 2044,
      "Ġprim": 2045,
      "Ġput": 2046,
      "ald": 2047,
      "ster": 2048,
      "ration": 2049,
      "ĠEl": 2050,
      "Ġvill": 2051,
      "Ġtrav": 2052,
      "Ġtechn": 2053,
      "ĠYou": 2054,
      "Ġcy": 2055,
      "alth": 2056,
      "Ġcreated": 2057,
      "af": 2058,
      "ael": 2059,
      "ico": 2060,
      "ĠPal": 2061,
      "Ġ189": 2062,
      "Ġofficial": 2063,
      "Ġnovel": 2064,
      "con": 2065,
      "Ġ2004": 2066,
      "Ġsuff": 2067,
      "Ġ2005": 2068,
      "ublic": 2069,
      "Ġentire": 2070,
      "isc": 2071,
      "ĠTo": 2072,
      "ush": 2073,
      "Ġke": 2074,
      "ogn": 2075,
      "Ġable": 2076,
      "Ġpolitical": 2077,
      "ec": 2078,
      "Ġfun": 2079,
      "ourn": 2080,
      "Ġcharacters": 2081,
      "Ġsum": 2082,
      "Ġget": 2083,
      "Ġothers": 2084,
      "Ġrelig": 2085,
      "Ġcoast": 2086,
      "ĠMag": 2087,
      "ĠHigh": 2088,
      "Ġconstruction": 2089,
      "omb": 2090,
      "Ġbird": 2091,
      "Ġbegin": 2092,
      "aves": 2093,
      "abor": 2094,
      "iness": 2095,
      "oll": 2096,
      "Ġoccur": 2097,
      "ring": 2098,
      "Ġson": 2099,
      "Ġpit": 2100,
      "Ġpri": 2101,
      "epend": 2102,
      "Ġcert": 2103,
      "ĠTown": 2104,
      "ĠâĢĻ": 2105,
      "day": 2106,
      "ying": 2107,
      "Ġred": 2108,
      "ĠGl": 2109,
      "ressed": 2110,
      "Ġonce": 2111,
      "ample": 2112,
      "Ġremained": 2113,
      "ĠAng": 2114,
      "Ġlocated": 2115,
      "ination": 2116,
      "rest": 2117,
      "iting": 2118,
      "asing": 2119,
      "ĠCare": 2120,
      "Ġste": 2121,
      "isted": 2122,
      "Ġbecom": 2123,
      "Ġsurv": 2124,
      "Ġpromot": 2125,
      "Ġbattle": 2126,
      "fall": 2127,
      "Ġlik": 2128,
      "Ġnational": 2129,
      "ĠCor": 2130,
      "Ġscored": 2131,
      "Ġworks": 2132,
      "Ġdiffic": 2133,
      "ĠKingdom": 2134,
      "Ġdifficult": 2135,
      "ĠHist": 2136,
      "ected": 2137,
      "Ġproduc": 2138,
      "Ġmeet": 2139,
      "Ġcompleted": 2140,
      "ĠIsland": 2141,
      "ĠAustralian": 2142,
      "Ġcampaign": 2143,
      "Ġtradition": 2144,
      "Ġannounced": 2145,
      "ĠSom": 2146,
      "ĠCal": 2147,
      "Ġrank": 2148,
      "ĠSec": 2149,
      "uck": 2150,
      "Ġstars": 2151,
      "Ġregion": 2152,
      "ator": 2153,
      "Ġfig": 2154,
      "Ġhold": 2155,
      "Ġrock": 2156,
      "Ġguns": 2157,
      "ĠCup": 2158,
      "ĠMor": 2159,
      "ĠCompany": 2160,
      "iers": 2161,
      "rie": 2162,
      "Ġprocess": 2163,
      "Ġlittle": 2164,
      "hem": 2165,
      "Ġfav": 2166,
      "Ġfight": 2167,
      "ĠRec": 2168,
      "Ġhighway": 2169,
      "Ġgoal": 2170,
      "Ġinstead": 2171,
      "Ġhelp": 2172,
      "Ġtre": 2173,
      "ivid": 2174,
      "irc": 2175,
      "Ġpred": 2176,
      "ĠCro": 2177,
      "Ġval": 2178,
      "Ġgrow": 2179,
      "Ġadded": 2180,
      "itted": 2181,
      "ament": 2182,
      "Ġgl": 2183,
      "rought": 2184,
      "Ġcross": 2185,
      "ĠOl": 2186,
      "Ġlet": 2187,
      "Ġleast": 2188,
      "Ġfollowed": 2189,
      "Ġfac": 2190,
      "Ġfront": 2191,
      "Ġredu": 2192,
      "ounc": 2193,
      "Ġ31": 2194,
      "Ġpeak": 2195,
      "Ġappeared": 2196,
      "Ġborn": 2197,
      "Ġrev": 2198,
      "quad": 2199,
      "ĠKe": 2200,
      "Ġknow": 2201,
      "Ġkilled": 2202,
      "leet": 2203,
      "Ġoriginally": 2204,
      "Ġmonths": 2205,
      "Ġer": 2206,
      "reg": 2207,
      "Ġwife": 2208,
      "Ġcomment": 2209,
      "elling": 2210,
      "ĠArmy": 2211,
      "Ġsouthern": 2212,
      "orse": 2213,
      "ĠDavid": 2214,
      "oice": 2215,
      "Ġcas": 2216,
      "Ġloss": 2217,
      "ĠBill": 2218,
      "ĠGrand": 2219,
      "Ġfif": 2220,
      "enced": 2221,
      "ality": 2222,
      "Ġhurricane": 2223,
      "enth": 2224,
      "Ġnuc": 2225,
      "ĠHam": 2226,
      "ries": 2227,
      "Ġwomen": 2228,
      "Ġassoci": 2229,
      "Ġident": 2230,
      "Ġeastern": 2231,
      "Ġagre": 2232,
      "ĠMusic": 2233,
      "bo": 2234,
      "Ġ29": 2235,
      "angu": 2236,
      "Ġrelationship": 2237,
      "Ã¡": 2238,
      "ÃŃ": 2239,
      "Ġmass": 2240,
      "Ġ2003": 2241,
      "Ġcritics": 2242,
      "off": 2243,
      "Ġmother": 2244,
      "ĠSome": 2245,
      "Ġaccom": 2246,
      "ĠFrance": 2247,
      "Ġeventually": 2248,
      "Ġaward": 2249,
      "ĠSup": 2250,
      "acy": 2251,
      "Ġ40": 2252,
      "Ġ185": 2253,
      "Ġfeatures": 2254,
      "gr": 2255,
      "Ġbus": 2256,
      "lect": 2257,
      "idd": 2258,
      "ĠOther": 2259,
      "Ġ2015": 2260,
      "field": 2261,
      "Ġlive": 2262,
      "Ġbroad": 2263,
      "com": 2264,
      "Ġaud": 2265,
      "Ġcond": 2266,
      "Ġanim": 2267,
      "Ġyoung": 2268,
      "ray": 2269,
      "Ġtaken": 2270,
      "Ġcell": 2271,
      "Ġstri": 2272,
      "app": 2273,
      "Ġroute": 2274,
      "Ġrecogn": 2275,
      "Ġappoin": 2276,
      "Ġfourth": 2277,
      "ĠTwo": 2278,
      "Ġserved": 2279,
      "here": 2280,
      "Ġbar": 2281,
      "ully": 2282,
      "ĠEx": 2283,
      "Äģ": 2284,
      "ota": 2285,
      "emy": 2286,
      "Ġestim": 2287,
      "Ġdamage": 2288,
      "Ġprofess": 2289,
      "Ġlack": 2290,
      "Ġheavy": 2291,
      "antry": 2292,
      "arliam": 2293,
      "ique": 2294,
      "inal": 2295,
      "Ġsw": 2296,
      "Ġbase": 2297,
      "Ġeither": 2298,
      "Ġsex": 2299,
      "Ġdecided": 2300,
      "ĠBattalion": 2301,
      "Ġaver": 2302,
      "osaur": 2303,
      "ĠLove": 2304,
      "Ġproble": 2305,
      "Ġvoc": 2306,
      "ĠSw": 2307,
      "olution": 2308,
      "Ġcondom": 2309,
      "Ġcommer": 2310,
      "Ġbehind": 2311,
      "Ġtoget": 2312,
      "aper": 2313,
      "azine": 2314,
      "Ġbelieved": 2315,
      "Ġtogether": 2316,
      "Ġmor": 2317,
      "Ġsepar": 2318,
      "ĠRobert": 2319,
      "chie": 2320,
      "Ġsuper": 2321,
      "Ġarg": 2322,
      "ille": 2323,
      "ĠGod": 2324,
      "ought": 2325,
      "Ġplaying": 2326,
      "ountain": 2327,
      "Ġindivid": 2328,
      "ĠCarey": 2329,
      "arliament": 2330,
      "Ġve": 2331,
      "Ġimpro": 2332,
      "igned": 2333,
      "ization": 2334,
      "lo": 2335,
      "Ġcreat": 2336,
      "Ġexample": 2337,
      "Ġspecial": 2338,
      "ĠRoyal": 2339,
      "ouncil": 2340,
      "ĠMon": 2341,
      "Ġalmost": 2342,
      "Ġclos": 2343,
      "Ġclose": 2344,
      "Ġ188": 2345,
      "Ġmove": 2346,
      "Ġaccept": 2347,
      "ements": 2348,
      "Ġquar": 2349,
      "Ġleading": 2350,
      "hys": 2351,
      "ĠMex": 2352,
      "ĠEuropean": 2353,
      "cial": 2354,
      "mar": 2355,
      "Ġburn": 2356,
      "Ġlangu": 2357,
      "Ġask": 2358,
      "Ġgenerally": 2359,
      "Ġservice": 2360,
      "ĠFederer": 2361,
      "Ġtowards": 2362,
      "Ġmater": 2363,
      "Ġround": 2364,
      "aching": 2365,
      "Ġelements": 2366,
      "Ġopened": 2367,
      "Ġfall": 2368,
      "Ġhy": 2369,
      "Ġarm": 2370,
      "Ġsour": 2371,
      "Ġbrought": 2372,
      "Ġdou": 2373,
      "ĠSer": 2374,
      "urb": 2375,
      "ĠBer": 2376,
      "ĠBrigade": 2377,
      "Ġweeks": 2378,
      "Ġmiss": 2379,
      "Ġnon": 2380,
      "ĠInternational": 2381,
      "Ġfinished": 2382,
      "iction": 2383,
      "Ġce": 2384,
      "Ġcirc": 2385,
      "ĠCr": 2386,
      "ĠIr": 2387,
      "ĠWales": 2388,
      "Ġra": 2389,
      "illa": 2390,
      "rict": 2391,
      "Ġlaun": 2392,
      "Ġsaw": 2393,
      "icated": 2394,
      "ceed": 2395,
      "Ġstudy": 2396,
      "Ġfeatured": 2397,
      "Ġhost": 2398,
      "ĠViet": 2399,
      "Ġrespect": 2400,
      "Ġaircraft": 2401,
      "iation": 2402,
      "Ġregular": 2403,
      "ĠFlor": 2404,
      "Ġdraw": 2405,
      "ida": 2406,
      "Ġenc": 2407,
      "iron": 2408,
      "ests": 2409,
      "Ġvol": 2410,
      "ĠWhite": 2411,
      "Ġgeneral": 2412,
      "Ġpoints": 2413,
      "ned": 2414,
      "read": 2415,
      "Ġrese": 2416,
      "ston": 2417,
      "ĠHen": 2418,
      "etwork": 2419,
      "ĠPart": 2420,
      "ways": 2421,
      "Ġelect": 2422,
      "Ġdirected": 2423,
      "uter": 2424,
      "ze": 2425,
      "ounted": 2426,
      "ĠChampionship": 2427,
      "Ġcentral": 2428,
      "Ġprovided": 2429,
      "hic": 2430,
      "Ġaction": 2431,
      "ordan": 2432,
      "Ġmeas": 2433,
      "val": 2434,
      "Ġfund": 2435,
      "Ġinform": 2436,
      "ĠAct": 2437,
      "ĠSy": 2438,
      "ĠHar": 2439,
      "Ġ35": 2440,
      "Ġupon": 2441,
      "ĠPlay": 2442,
      "Ġdirector": 2443,
      "ography": 2444,
      "iol": 2445,
      "Ġwall": 2446,
      "ĠGame": 2447,
      "Ġmean": 2448,
      "Ġappearance": 2449,
      "eum": 2450,
      "Ġwid": 2451,
      "ĠFollow": 2452,
      "ĠJordan": 2453,
      "umb": 2454,
      "ĠEast": 2455,
      "Ġ186": 2456,
      "Ġcoll": 2457,
      "Ġearlier": 2458,
      "Ġmi": 2459,
      "ĠFrom": 2460,
      "odes": 2461,
      "Ġyard": 2462,
      "ĠThom": 2463,
      "ency": 2464,
      "ĠPres": 2465,
      "Ġsequ": 2466,
      "Ġrather": 2467,
      "Ġking": 2468,
      "Ġ2014": 2469,
      "Ġflood": 2470,
      "Ġfemale": 2471,
      "ĠAtlantic": 2472,
      "bit": 2473,
      "ino": 2474,
      "irl": 2475,
      "Ġindust": 2476,
      "medi": 2477,
      "Ġcurrent": 2478,
      "Ġtroops": 2479,
      "Ġlargest": 2480,
      "Ġvictory": 2481,
      "ĠFollowing": 2482,
      "oring": 2483,
      "Ġren": 2484,
      "Ġreve": 2485,
      "ĠJew": 2486,
      "Ġdev": 2487,
      "Ġsubsequ": 2488,
      "Ġemploy": 2489,
      "Ġoperations": 2490,
      "ĠChristian": 2491,
      "Ġparticularly": 2492,
      "ĠGeorge": 2493,
      "Ġmanager": 2494,
      "ming": 2495,
      "Ġachie": 2496,
      "Ġcost": 2497,
      "ĠMad": 2498,
      "ĠHouse": 2499,
      "ĠDay": 2500,
      "ĠHero": 2501,
      "cher": 2502,
      "oid": 2503,
      "ĠMary": 2504,
      "ude": 2505,
      "ĠRep": 2506,
      "Ġopening": 2507,
      "Ġwanted": 2508,
      "stit": 2509,
      "Ġbeg": 2510,
      "ĠDu": 2511,
      "Ġcondu": 2512,
      "mb": 2513,
      "eler": 2514,
      "ĠRed": 2515,
      "orts": 2516,
      "Ġyards": 2517,
      "Ġevidence": 2518,
      "iber": 2519,
      "Ġcut": 2520,
      "Ġreason": 2521,
      "ouri": 2522,
      "Ġriver": 2523,
      "Ġprob": 2524,
      "Ġexc": 2525,
      "ounter": 2526,
      "ĠCommand": 2527,
      "Ġnorthern": 2528,
      "ĠFlorida": 2529,
      "Ġmember": 2530,
      "Ġstage": 2531,
      "Ġinsp": 2532,
      "cast": 2533,
      "Ġleng": 2534,
      "ĠRock": 2535,
      "ĠStreet": 2536,
      "Ġ500": 2537,
      "Ġoutside": 2538,
      "Ġcrew": 2539,
      "Ġallowed": 2540,
      "Ġpossible": 2541,
      "Ġengine": 2542,
      "oo": 2543,
      "Ġfoc": 2544,
      "Ġbi": 2545,
      "Ġstren": 2546,
      "action": 2547,
      "Ġsaying": 2548,
      "sel": 2549,
      "Ġill": 2550,
      "ĠMed": 2551,
      "ellow": 2552,
      "ĠOliv": 2553,
      "cript": 2554,
      "erous": 2555,
      "atural": 2556,
      "ania": 2557,
      "Ġhit": 2558,
      "Ġhours": 2559,
      "Ġwhom": 2560,
      "west": 2561,
      "Ġcase": 2562,
      "anch": 2563,
      "ential": 2564,
      "Ġnomin": 2565,
      "conom": 2566,
      "ators": 2567,
      "Ġfort": 2568,
      "Ġdeter": 2569,
      "Ġexist": 2570,
      "Ġ2001": 2571,
      "Ġworked": 2572,
      "Ġregard": 2573,
      "ĠMissouri": 2574,
      "alt": 2575,
      "ĠMost": 2576,
      "ĠOd": 2577,
      "Ġpract": 2578,
      "Ġstreng": 2579,
      "eal": 2580,
      "atin": 2581,
      "Ġmot": 2582,
      "ama": 2583,
      "ĠBra": 2584,
      "Ġworking": 2585,
      "Ġterrit": 2586,
      "Ġrespons": 2587,
      "Ġlength": 2588,
      "cent": 2589,
      "nder": 2590,
      "ĠMy": 2591,
      "Ġnews": 2592,
      "Ġreb": 2593,
      "osition": 2594,
      "ĠGal": 2595,
      "artment": 2596,
      "Ġdefend": 2597,
      "board": 2598,
      "Ġmaterial": 2599,
      "ata": 2600,
      "Ġbur": 2601,
      "Ġmach": 2602,
      "Ġgold": 2603,
      "Ġpoor": 2604,
      "Ġdesigned": 2605,
      "Ġfree": 2606,
      "Ġlove": 2607,
      "ĠBay": 2608,
      "ĠPaul": 2609,
      "Ġseem": 2610,
      "ump": 2611,
      "Ġrul": 2612,
      "Ġneg": 2613,
      "ĠTech": 2614,
      "thod": 2615,
      "Ġstay": 2616,
      "ĠWal": 2617,
      "anding": 2618,
      "Ġpraised": 2619,
      "uel": 2620,
      "ĠCo": 2621,
      "ĠMark": 2622,
      "Ġforced": 2623,
      "ĠFirst": 2624,
      "ights": 2625,
      "ishing": 2626,
      "Ġremains": 2627,
      "ĠIndian": 2628,
      "Ġavail": 2629,
      "Ġfootball": 2630,
      "ores": 2631,
      "ĠBest": 2632,
      "Ġ187": 2633,
      "Ġ1970": 2634,
      "ĠPhil": 2635,
      "Ġbill": 2636,
      "ana": 2637,
      "Ġthink": 2638,
      "Ġstation": 2639,
      "Ġwinds": 2640,
      "ĠMichael": 2641,
      "less": 2642,
      "Ġtreat": 2643,
      "Ġcop": 2644,
      "ĠWil": 2645,
      "Ġquick": 2646,
      "Ġgoals": 2647,
      "Ġincreased": 2648,
      "Ġcontract": 2649,
      "heast": 2650,
      "ened": 2651,
      "Ġpast": 2652,
      "Ġdi": 2653,
      "aps": 2654,
      "Ġpreviously": 2655,
      "ĠÂ£": 2656,
      "ius": 2657,
      "vest": 2658,
      "ica": 2659,
      "Ġgre": 2660,
      "ago": 2661,
      "ĠEgy": 2662,
      "Ġabove": 2663,
      "Ġreplaced": 2664,
      "ĠEgypt": 2665,
      "gg": 2666,
      "ule": 2667,
      "xas": 2668,
      "ĠCap": 2669,
      "ĠBut": 2670,
      "vert": 2671,
      "Ġsoon": 2672,
      "Ġinvest": 2673,
      "ĠRichard": 2674,
      "Ġcivil": 2675,
      "Ġly": 2676,
      "ĠBus": 2677,
      "Ġviol": 2678,
      "ĠDespite": 2679,
      "Ġbusiness": 2680,
      "Ġhon": 2681,
      "Ġinterview": 2682,
      "Ġmer": 2683,
      "Ġthreat": 2684,
      "ession": 2685,
      "Ġ2000": 2686,
      "ributed": 2687,
      "Ġwriter": 2688,
      "ĠÂ°": 2689,
      "Ġcommercial": 2690,
      "ĠHenry": 2691,
      "erved": 2692,
      "asion": 2693,
      "Ġmph": 2694,
      "irth": 2695,
      "ĠHill": 2696,
      "Ġunits": 2697,
      "hens": 2698,
      "ĠCanada": 2699,
      "Ġestimated": 2700,
      "Ġclear": 2701,
      "ara": 2702,
      "ĠSan": 2703,
      "Ġ1990": 2704,
      "Ġaccount": 2705,
      "anned": 2706,
      "ĠQue": 2707,
      "Ġesc": 2708,
      "Ġquarter": 2709,
      "Ġsomet": 2710,
      "Ġpain": 2711,
      "ĠKh": 2712,
      "Ġclaimed": 2713,
      "Ġjoined": 2714,
      "ĠJapanese": 2715,
      "Ġhighest": 2716,
      "uation": 2717,
      "Ġtrib": 2718,
      "utive": 2719,
      "Ġplaced": 2720,
      "Ġspecific": 2721,
      "Ġsurf": 2722,
      "ĠBrown": 2723,
      "ĠOldham": 2724,
      "Ġinvolved": 2725,
      "wh": 2726,
      "ye": 2727,
      "Ġz": 2728,
      "Ġmust": 2729,
      "ĠTimes": 2730,
      "Ġlo": 2731,
      "Ġsigned": 2732,
      "Ġdiscuss": 2733,
      "Ġsuggested": 2734,
      "ĠPresident": 2735,
      "ĠTor": 2736,
      "ĠVir": 2737,
      "Ġparts": 2738,
      "ĠDep": 2739,
      "Ġcourt": 2740,
      "Ġwestern": 2741,
      "oms": 2742,
      "ett": 2743,
      "Ġintens": 2744,
      "Ġ183": 2745,
      "ĠOlivier": 2746,
      "BC": 2747,
      "iter": 2748,
      "Ġproper": 2749,
      "Ġleague": 2750,
      "clus": 2751,
      "Ġitself": 2752,
      "Ġpriv": 2753,
      "ĠCarol": 2754,
      "ĠVietn": 2755,
      "lic": 2756,
      "Ġpers": 2757,
      "ĠDr": 2758,
      "ĠWhe": 2759,
      "ĠLater": 2760,
      "istic": 2761,
      "wood": 2762,
      "Ġobject": 2763,
      "ĠIndia": 2764,
      "Ġaverage": 2765,
      "ĠMexico": 2766,
      "tt": 2767,
      "Ġtaking": 2768,
      "thlet": 2769,
      "Ġchange": 2770,
      "Ġshot": 2771,
      "ĠArab": 2772,
      "Ġavailable": 2773,
      "ington": 2774,
      "ĠSchool": 2775,
      "olic": 2776,
      "osing": 2777,
      "ĠGovern": 2778,
      "Ġcome": 2779,
      "Ġscene": 2780,
      "ĠMcC": 2781,
      "Ġintroduced": 2782,
      "Ġcycl": 2783,
      "ving": 2784,
      "Ġfly": 2785,
      "ĠIm": 2786,
      "Ġwhose": 2787,
      "Ġrecording": 2788,
      "Ġtransport": 2789,
      "Ġterm": 2790,
      "Ġvillage": 2791,
      "now": 2792,
      "ita": 2793,
      "Ġinj": 2794,
      "Ġhous": 2795,
      "ĠCong": 2796,
      "achel": 2797,
      "Ġheav": 2798,
      "ĠVal": 2799,
      "Ġtransfer": 2800,
      "Ġbrother": 2801,
      "ĠThomas": 2802,
      "bor": 2803,
      "nes": 2804,
      "ximately": 2805,
      "ĠHall": 2806,
      "ĠVar": 2807,
      "Ġreligious": 2808,
      "ĠIrish": 2809,
      "ready": 2810,
      "Ġpen": 2811,
      "lected": 2812,
      "Ġrace": 2813,
      "quar": 2814,
      "ibility": 2815,
      "Ġbreak": 2816,
      "porary": 2817,
      "Ġtravel": 2818,
      "AF": 2819,
      "band": 2820,
      "onst": 2821,
      "Ġslow": 2822,
      "Ġtold": 2823,
      "Ġdon": 2824,
      "Ġnetwork": 2825,
      "acing": 2826,
      "ĠPac": 2827,
      "Ġ36": 2828,
      "ĠBritain": 2829,
      "Ġshows": 2830,
      "Ġ1960": 2831,
      "Ġdamaged": 2832,
      "rated": 2833,
      "Ġ-": 2834,
      "Ġnames": 2835,
      "ĠCard": 2836,
      "Ġstop": 2837,
      "ĠHel": 2838,
      "Ġrail": 2839,
      "pected": 2840,
      "Ġexec": 2841,
      "abit": 2842,
      "Ġremov": 2843,
      "Ġincreasing": 2844,
      "Ġturned": 2845,
      "ĠRepublic": 2846,
      "Ġmult": 2847,
      "Ġlines": 2848,
      "Ġgive": 2849,
      "ĠHurricane": 2850,
      "ĠThat": 2851,
      "Ġsubject": 2852,
      "Ġnine": 2853,
      "ĠMany": 2854,
      "ĠGreat": 2855,
      "Ġdespite": 2856,
      "ĠScient": 2857,
      "Ġnearly": 2858,
      "ĠGuitar": 2859,
      "Ġappointed": 2860,
      "Ġsize": 2861,
      "Ġpie": 2862,
      "ĠSm": 2863,
      "ĠNot": 2864,
      "oney": 2865,
      "Ġfeel": 2866,
      "Ġcomplet": 2867,
      "ĠZeal": 2868,
      "Ġcommunity": 2869,
      "Ġstructure": 2870,
      "ĠZealand": 2871,
      "Ġ?": 2872,
      "Ġop": 2873,
      "Ġphys": 2874,
      "Ġdate": 2875,
      "Ġhard": 2876,
      "ĠSun": 2877,
      "Ġeconom": 2878,
      "elled": 2879,
      "Ġdiss": 2880,
      "Ġindepend": 2881,
      "Ġsurround": 2882,
      "Ġpassed": 2883,
      "Ġeduc": 2884,
      "ault": 2885,
      "Ġinternational": 2886,
      "Ġpur": 2887,
      "ĠMac": 2888,
      "iding": 2889,
      "ĠNY": 2890,
      "ĠGold": 2891,
      "ruction": 2892,
      "ĠUnion": 2893,
      "ronic": 2894,
      "Ġestablish": 2895,
      "Ġliter": 2896,
      "Ġinitially": 2897,
      "pecially": 2898,
      "Ġcertain": 2899,
      "head": 2900,
      "Ġwithd": 2901,
      "Ġalready": 2902,
      "Ġ184": 2903,
      "Ġimmedi": 2904,
      "Ġgrad": 2905,
      "Ġgoing": 2906,
      "Ġsocial": 2907,
      "Ġfailed": 2908,
      "Ġmight": 2909,
      "ĠAc": 2910,
      "ĠRou": 2911,
      "ume": 2912,
      "Ġdeal": 2913,
      "Ġrap": 2914,
      "Ġchap": 2915,
      "ĠChines": 2916,
      "Ġdisplay": 2917,
      "Ġ60": 2918,
      "Ġassist": 2919,
      "anna": 2920,
      "Ġwinning": 2921,
      "Ġarchae": 2922,
      "ĠEarly": 2923,
      "ĠChinese": 2924,
      "Ġstates": 2925,
      "ĠEver": 2926,
      "Ġtraining": 2927,
      "hedral": 2928,
      "Ġ45": 2929,
      "Ġscore": 2930,
      "Ġaccording": 2931,
      "Ġcapital": 2932,
      "Ġoccup": 2933,
      "Ġtype": 2934,
      "Ġespecially": 2935,
      "Ġlanguage": 2936,
      "Ġprobably": 2937,
      "ĠPacific": 2938,
      "Ġfood": 2939,
      "arily": 2940,
      "Ġdoc": 2941,
      "ĠMont": 2942,
      "ĠEm": 2943,
      "iff": 2944,
      "Ġ2002": 2945,
      "Ġminor": 2946,
      "ĠColle": 2947,
      "Ġissue": 2948,
      "Ġdebut": 2949,
      "Ġforest": 2950,
      "for": 2951,
      "Ġtest": 2952,
      "Ġwood": 2953,
      "Ġfut": 2954,
      "aled": 2955,
      "Ġmale": 2956,
      "Ġdaugh": 2957,
      "urt": 2958,
      "ĠPre": 2959,
      "Ġstudio": 2960,
      "ĠIII": 2961,
      "ties": 2962,
      "Ġtow": 2963,
      "ĠMos": 2964,
      "Ġconn": 2965,
      "ĠOs": 2966,
      "Ġincludes": 2967,
      "Ġspent": 2968,
      "Ġarrived": 2969,
      "Ġordered": 2970,
      "ĠHistory": 2971,
      "ĠWheeler": 2972,
      "ĠÃ": 2973,
      "ĠAg": 2974,
      "ĠAwards": 2975,
      "ĠSl": 2976,
      "ĠFilm": 2977,
      "ĠJin": 2978,
      "Ġarmy": 2979,
      "Ġenough": 2980,
      "Ġremaining": 2981,
      "Ġparticip": 2982,
      "Ġvisit": 2983,
      "ĠCanadian": 2984,
      "onse": 2985,
      "Ġfail": 2986,
      "Ġmem": 2987,
      "ĠCath": 2988,
      "Ġforward": 2989,
      "ĠNavy": 2990,
      "odies": 2991,
      "Ġmixed": 2992,
      "Ġsometimes": 2993,
      "atory": 2994,
      "Ġcru": 2995,
      "ula": 2996,
      "ĠUK": 2997,
      "Ġcomplete": 2998,
      "Ġapproximately": 2999,
      "Ġreviews": 3000,
      "Ġrequired": 3001,
      "ĠPeter": 3002,
      "fect": 3003,
      "nel": 3004,
      "aries": 3005,
      "Ġpot": 3006,
      "Ġlatter": 3007,
      "ĠCreek": 3008,
      "ays": 3009,
      "ĠRes": 3010,
      "ulated": 3011,
      "ilities": 3012,
      "ĠSing": 3013,
      "ĠRose": 3014,
      "ĠDon": 3015,
      "Ġrain": 3016,
      "Ġabs": 3017,
      "Ġcenter": 3018,
      "Ġremain": 3019,
      "ference": 3020,
      "ĠAssoci": 3021,
      "ĠAfrica": 3022,
      "Ġbeginning": 3023,
      "hib": 3024,
      "ulf": 3025,
      "ĠLaw": 3026,
      "Ġblock": 3027,
      "ĠAngel": 3028,
      "eth": 3029,
      "tation": 3030,
      "Ġlower": 3031,
      "ateg": 3032,
      "Ġdecision": 3033,
      "Ġanti": 3034,
      "Ġlimited": 3035,
      "enes": 3036,
      "Ġdro": 3037,
      "ste": 3038,
      "chol": 3039,
      "Ġusually": 3040,
      "ĠArt": 3041,
      "Ġadditional": 3042,
      "Ġchanges": 3043,
      "ĠRegiment": 3044,
      "ites": 3045,
      "Ġden": 3046,
      "ĠMo": 3047,
      "ĠRachel": 3048,
      "ĠJer": 3049,
      "rian": 3050,
      "Ġjourn": 3051,
      "Ġbetter": 3052,
      "Ġindic": 3053,
      "Ġpresident": 3054,
      "Ġrunning": 3055,
      "Ġresponse": 3056,
      "ĠVirgin": 3057,
      "itz": 3058,
      "ĠSoc": 3059,
      "Ġkey": 3060,
      "Ġpositive": 3061,
      "Ġended": 3062,
      "Ġlarger": 3063,
      "Ġstudents": 3064,
      "ĠSuper": 3065,
      "Ġwoman": 3066,
      "Ġmention": 3067,
      "ĠNort": 3068,
      "Ġdead": 3069,
      "Ġsupported": 3070,
      "Ġmagazine": 3071,
      "quadron": 3072,
      "Ġtouch": 3073,
      "ĠAward": 3074,
      "lymp": 3075,
      "ĠPenn": 3076,
      "ĠOlymp": 3077,
      "Ġnotes": 3078,
      "ĠStud": 3079,
      "rics": 3080,
      "ĠScott": 3081,
      "Ġpolice": 3082,
      "Ġdepression": 3083,
      "Ġpressure": 3084,
      "Ġwide": 3085,
      "Ġcal": 3086,
      "aval": 3087,
      "ĠVer": 3088,
      "Ġpoet": 3089,
      "ĠCharles": 3090,
      "Ġbirds": 3091,
      "gl": 3092,
      "tr": 3093,
      "edy": 3094,
      "enty": 3095,
      "Ġshown": 3096,
      "Ġ1995": 3097,
      "Ġquest": 3098,
      "Ġprevent": 3099,
      "ĠBillboard": 3100,
      "ases": 3101,
      "aph": 3102,
      "aker": 3103,
      "Ġspace": 3104,
      "Ġrelated": 3105,
      "Ġfuture": 3106,
      "back": 3107,
      "Ġ38": 3108,
      "Ġ1980": 3109,
      "Ġprovide": 3110,
      "Ġdefeated": 3111,
      "Ġfifth": 3112,
      "go": 3113,
      "rd": 3114,
      "uf": 3115,
      "Ġface": 3116,
      "arm": 3117,
      "Ġhom": 3118,
      "ĠTV": 3119,
      "ĠTom": 3120,
      "stant": 3121,
      "ĠPri": 3122,
      "uments": 3123,
      "Ġdiscovered": 3124,
      "ih": 3125,
      "leg": 3126,
      "ĠTer": 3127,
      "owl": 3128,
      "Ġstaff": 3129,
      "ĠFort": 3130,
      "Ġsyn": 3131,
      "Ġfeature": 3132,
      "Ġtemper": 3133,
      "ĠRoute": 3134,
      "men": 3135,
      "ss": 3136,
      "Ġanc": 3137,
      "Ġ80": 3138,
      "Ġprior": 3139,
      "Ġbecoming": 3140,
      "co": 3141,
      "uals": 3142,
      "Ġaut": 3143,
      "Ġbirth": 3144,
      "Ġdoll": 3145,
      "ids": 3146,
      "irt": 3147,
      "ands": 3148,
      "ifa": 3149,
      "mitted": 3150,
      "Ġcm": 3151,
      "ĠWestern": 3152,
      "Ġsection": 3153,
      "ĠOff": 3154,
      "riage": 3155,
      "Ġexam": 3156,
      "Ġsmaller": 3157,
      "Ġfrequ": 3158,
      "gely": 3159,
      "inct": 3160,
      "onc": 3161,
      "Ġintended": 3162,
      "ĠApp": 3163,
      "idents": 3164,
      "bert": 3165,
      "aby": 3166,
      "Ġscreen": 3167,
      "Ġdisp": 3168,
      "Ġgroups": 3169,
      "Ġidea": 3170,
      "ĠScientology": 3171,
      "aring": 3172,
      "Ġconclud": 3173,
      "ĠInf": 3174,
      "ishop": 3175,
      "Ġpercent": 3176,
      "Ġthemsel": 3177,
      "Ġmostly": 3178,
      "ĠFrank": 3179,
      "Ġmetres": 3180,
      "ĠHaifa": 3181,
      "stein": 3182,
      "Ġthemselves": 3183,
      "aut": 3184,
      "ney": 3185,
      "orial": 3186,
      "Ġfleet": 3187,
      "anies": 3188,
      "ĠTur": 3189,
      "ĠHot": 3190,
      "agon": 3191,
      "quare": 3192,
      "ĠStar": 3193,
      "Ġ2016": 3194,
      "ĠYear": 3195,
      "Ġminutes": 3196,
      "Ġcaptured": 3197,
      "Ġreferred": 3198,
      "Ġlikely": 3199,
      "Ġresearch": 3200,
      "Ġsurface": 3201,
      "Ġword": 3202,
      "Ġfir": 3203,
      "enon": 3204,
      "Ġdomin": 3205,
      "ĠSince": 3206,
      "ching": 3207,
      "ĠLa": 3208,
      "iforn": 3209,
      "Ġoffice": 3210,
      "Ġlargely": 3211,
      "Ġmusical": 3212,
      "rief": 3213,
      "ĠCroat": 3214,
      "Ġprofessional": 3215,
      "Ġproblems": 3216,
      "ĠAssociation": 3217,
      "down": 3218,
      "Ġflow": 3219,
      "ĠParliament": 3220,
      "ĠFI": 3221,
      "ĠLight": 3222,
      "rael": 3223,
      "Ġ75": 3224,
      "Ġentered": 3225,
      "Ġmedia": 3226,
      "ee": 3227,
      "gar": 3228,
      "Ġsem": 3229,
      "Ġmakes": 3230,
      "Ġcontem": 3231,
      "Ġmoving": 3232,
      "Ġamount": 3233,
      "Ġbroadcast": 3234,
      "ners": 3235,
      "Ġcer": 3236,
      "Ġder": 3237,
      "ĠSov": 3238,
      "omm": 3239,
      "Ġlearn": 3240,
      "Ġcontains": 3241,
      "Ġemb": 3242,
      "Ġconstructed": 3243,
      "ĠPortug": 3244,
      "Ġradio": 3245,
      "quarters": 3246,
      "gu": 3247,
      "uk": 3248,
      "Ã³": 3249,
      "oul": 3250,
      "Ġlink": 3251,
      "ĠOper": 3252,
      "sec": 3253,
      "Ġens": 3254,
      "Ġ1999": 3255,
      "Ġkeep": 3256,
      "Ġsummer": 3257,
      "ĠCaliforn": 3258,
      "bers": 3259,
      "ises": 3260,
      "Ġpair": 3261,
      "Ġmoney": 3262,
      "acted": 3263,
      "ĠRuss": 3264,
      "ĠJe": 3265,
      "pped": 3266,
      "ples": 3267,
      "Ġguitar": 3268,
      "Ġeffects": 3269,
      "Ġcele": 3270,
      "ios": 3271,
      "to": 3272,
      "ville": 3273,
      "ergy": 3274,
      "itte": 3275,
      "isions": 3276,
      "anish": 3277,
      "Ġnature": 3278,
      "ĠCouncil": 3279,
      "Ġstories": 3280,
      "ĠHow": 3281,
      "cean": 3282,
      "Ġsea": 3283,
      "Ġvoice": 3284,
      "Ġgrant": 3285,
      "ĠIsrael": 3286,
      "Ġ1950": 3287,
      "Ġmajority": 3288,
      "Ġlisted": 3289,
      "Ġobserv": 3290,
      "ĠEarth": 3291,
      "Ġranked": 3292,
      "ĠJewish": 3293,
      "uz": 3294,
      "Ġself": 3295,
      "Ġparen": 3296,
      "Ġlay": 3297,
      "Ġadop": 3298,
      "Ġcreate": 3299,
      "Ġarrang": 3300,
      "Ġexperience": 3301,
      "ĠGalvest": 3302,
      "ĠGalveston": 3303,
      "den": 3304,
      "uing": 3305,
      "eding": 3306,
      "ĠMet": 3307,
      "ĠWood": 3308,
      "ĠOtt": 3309,
      "Ġleaving": 3310,
      "Ġcritical": 3311,
      "Ġthus": 3312,
      "ĠChic": 3313,
      "Ġprimary": 3314,
      "Ġfavor": 3315,
      "ires": 3316,
      "lor": 3317,
      "Ġschol": 3318,
      "Ġlived": 3319,
      "urity": 3320,
      "owler": 3321,
      "Ġalways": 3322,
      "ĠAnother": 3323,
      "Ġconsist": 3324,
      "Ġlocation": 3325,
      "ylv": 3326,
      "minist": 3327,
      "Ġgods": 3328,
      "Ġagreed": 3329,
      "Ġlyrics": 3330,
      "iest": 3331,
      "reak": 3332,
      "Ġbrief": 3333,
      "Ġpay": 3334,
      "Ġlab": 3335,
      "imate": 3336,
      "ĠFin": 3337,
      "ĠGo": 3338,
      "aven": 3339,
      "Ġrare": 3340,
      "teen": 3341,
      "Ġcompl": 3342,
      "Ġfilms": 3343,
      "Ġruns": 3344,
      "Ġofficers": 3345,
      "Ġcontroll": 3346,
      "Ġlaunched": 3347,
      "ĠCalifornia": 3348,
      "ping": 3349,
      "pool": 3350,
      "tar": 3351,
      "Ġcoin": 3352,
      "ĠServ": 3353,
      "ĠCamp": 3354,
      "ĠBey": 3355,
      "Ġcolon": 3356,
      "Ġsett": 3357,
      "Ġteams": 3358,
      "Ġculture": 3359,
      "Ġfriends": 3360,
      "osaurus": 3361,
      "Ġquickly": 3362,
      "ĠCatholic": 3363,
      "ĠHol": 3364,
      "change": 3365,
      "Ġmeant": 3366,
      "Ġepisodes": 3367,
      "ĠBrad": 3368,
      "Ġminute": 3369,
      "hester": 3370,
      "Ġproposed": 3371,
      "Ġoccurred": 3372,
      "oor": 3373,
      "pan": 3374,
      "ror": 3375,
      "ĠAle": 3376,
      "urg": 3377,
      "ĠIf": 3378,
      "arts": 3379,
      "ĠUp": 3380,
      "Ġwhether": 3381,
      "oke": 3382,
      "key": 3383,
      "Ġprem": 3384,
      "Ġattr": 3385,
      "Ġassigned": 3386,
      "Ġaccess": 3387,
      "Ġsettle": 3388,
      "Ġincrease": 3389,
      "Ġequip": 3390,
      "kan": 3391,
      "zy": 3392,
      "Ġsat": 3393,
      "atively": 3394,
      "Ġfans": 3395,
      "Ġpian": 3396,
      "ĠSaint": 3397,
      "Ġvot": 3398,
      "illery": 3399,
      "Ġtraff": 3400,
      "Ġadap": 3401,
      "Ġforms": 3402,
      "ification": 3403,
      "Ġappears": 3404,
      "Ġdefeat": 3405,
      "Ġchanged": 3406,
      "Ġdestroyed": 3407,
      "Ġtraffic": 3408,
      "Ġtons": 3409,
      "ĠMr": 3410,
      "imum": 3411,
      "ĠNic": 3412,
      "ĠNix": 3413,
      "ability": 3414,
      "Ġ400": 3415,
      "Ġscript": 3416,
      "Ġcommission": 3417,
      "Ġearth": 3418,
      "Ġlonger": 3419,
      "ospital": 3420,
      "ĠCentral": 3421,
      "Ġmeaning": 3422,
      "ĠChicago": 3423,
      "rup": 3424,
      "asy": 3425,
      "ĠRoss": 3426,
      "Ġjob": 3427,
      "Ġ70": 3428,
      "Ġtheme": 3429,
      "Ġnumbers": 3430,
      "Ġ1940": 3431,
      "Ġconcern": 3432,
      "ĠBattle": 3433,
      "Ġsoldiers": 3434,
      "Ġcompetition": 3435,
      "sis": 3436,
      "Ġmom": 3437,
      "Ġreach": 3438,
      "aded": 3439,
      "ĠHaw": 3440,
      "andon": 3441,
      "Ġleave": 3442,
      "Ġtrade": 3443,
      "ruit": 3444,
      "Ġbound": 3445,
      "ĠAlice": 3446,
      "vey": 3447,
      "Ġcarried": 3448,
      "onym": 3449,
      "Ġawarded": 3450,
      "Ġfocus": 3451,
      "ĠNorthern": 3452,
      "Ġcelebr": 3453,
      "Ġhop": 3454,
      "Ġgirl": 3455,
      "ĠLatin": 3456,
      "undred": 3457,
      "Ġ33": 3458,
      "Ġ1998": 3459,
      "ĠEnter": 3460,
      "ĠQu": 3461,
      "Ġconducted": 3462,
      "Ġprivate": 3463,
      "Ġdaughter": 3464,
      "Ġsil": 3465,
      "Ġcred": 3466,
      "Ġnatural": 3467,
      "ĠLou": 3468,
      "Ġdeep": 3469,
      "ĠOver": 3470,
      "bery": 3471,
      "Ġrecords": 3472,
      "Ġunderst": 3473,
      "Ġsubsequently": 3474,
      "Ġnewsp": 3475,
      "Ġcause": 3476,
      "Ġtourn": 3477,
      "ĠMey": 3478,
      "Ġanaly": 3479,
      "Ġran": 3480,
      "ortun": 3481,
      "Ġplans": 3482,
      "Ġ300": 3483,
      "Ġunc": 3484,
      "ĠVilla": 3485,
      "ĠScot": 3486,
      "Ġconsider": 3487,
      "Ġ1930": 3488,
      "Ġfighting": 3489,
      "oir": 3490,
      "Ġtakes": 3491,
      "itect": 3492,
      "Ġbord": 3493,
      "ari": 3494,
      "Ġded": 3495,
      "ĠMer": 3496,
      "iva": 3497,
      "ĠDj": 3498,
      "Ġshoot": 3499,
      "ĠAlkan": 3500,
      "Ġoverall": 3501,
      "Ġ1993": 3502,
      "Ġinfluence": 3503,
      "ĠPolish": 3504,
      "ĠSecond": 3505,
      "Ġcommented": 3506,
      "Ġindustry": 3507,
      "Ġ+": 3508,
      "Ġcle": 3509,
      "Ġbomb": 3510,
      "ĠMa": 3511,
      "usband": 3512,
      "ĠPat": 3513,
      "ĠFore": 3514,
      "ĠLiver": 3515,
      "ruct": 3516,
      "ĠItal": 3517,
      "Ġserious": 3518,
      "Ġfinally": 3519,
      "Ġelection": 3520,
      "Ġbring": 3521,
      "Ġconcert": 3522,
      "Ġasked": 3523,
      "ĠNixon": 3524,
      "ĠLiverpool": 3525,
      "tained": 3526,
      "ĠTay": 3527,
      "Ġemer": 3528,
      "ĠForm": 3529,
      "Ġdeg": 3530,
      "Ġkil": 3531,
      "Ġ32": 3532,
      "Ġcompared": 3533,
      "Ġwhole": 3534,
      "Ġimm": 3535,
      "Ġmethod": 3536,
      "Ġending": 3537,
      "Ġgreater": 3538,
      "hou": 3539,
      "oly": 3540,
      "sen": 3541,
      "Ġdone": 3542,
      "ĠBC": 3543,
      "ĠGro": 3544,
      "Ġunable": 3545,
      "ĠIts": 3546,
      "ĠSever": 3547,
      "ĠTexas": 3548,
      "ĠChristm": 3549,
      "Ġmarried": 3550,
      "Ġpositions": 3551,
      "Ġdouble": 3552,
      "stitute": 3553,
      "well": 3554,
      "inent": 3555,
      "Ġour": 3556,
      "Ġinn": 3557,
      "anced": 3558,
      "ĠTre": 3559,
      "ĠTour": 3560,
      "aches": 3561,
      "ĠLady": 3562,
      "erset": 3563,
      "Ġupper": 3564,
      "Ġcann": 3565,
      "Ġbuildings": 3566,
      "ĠSomerset": 3567,
      "gian": 3568,
      "Ġtar": 3569,
      "Ġsus": 3570,
      "Ġche": 3571,
      "Ġdram": 3572,
      "ĠTropical": 3573,
      "Ġthick": 3574,
      "ĠMart": 3575,
      "Ġgot": 3576,
      "umn": 3577,
      "ills": 3578,
      "Ġyet": 3579,
      "Ġcentre": 3580,
      "Ġearned": 3581,
      "Ġflight": 3582,
      "anks": 3583,
      "ĠMosley": 3584,
      "unt": 3585,
      "Ġcounter": 3586,
      "Ġbig": 3587,
      "Ġliving": 3588,
      "ĠCour": 3589,
      "ĠMil": 3590,
      "ĠThree": 3591,
      "Ġparty": 3592,
      "Ġenv": 3593,
      "aily": 3594,
      "Ġ1996": 3595,
      "Ġ90": 3596,
      "Ġacqu": 3597,
      "Ġpersonal": 3598,
      "Ġstandard": 3599,
      "Ġissued": 3600,
      "Ġnucle": 3601,
      "Ġbegins": 3602,
      "ĠBusch": 3603,
      "Ġrapid": 3604,
      "gen": 3605,
      "Ġpurch": 3606,
      "ĠTenn": 3607,
      "Ġthrow": 3608,
      "Ġlog": 3609,
      "ĠMount": 3610,
      "Ġkind": 3611,
      "ĠStr": 3612,
      "Ġbox": 3613,
      "Ġterms": 3614,
      "Ġdirectly": 3615,
      "Ġmarked": 3616,
      "Ġmarket": 3617,
      "ittee": 3618,
      "dle": 3619,
      "Ġult": 3620,
      "ĠSk": 3621,
      "amer": 3622,
      "ĠBel": 3623,
      "ulted": 3624,
      "ĠLake": 3625,
      "Ġhero": 3626,
      "Ġhealth": 3627,
      "Ġscenes": 3628,
      "ails": 3629,
      "Ġmovement": 3630,
      "Ġbooks": 3631,
      "Ġmarriage": 3632,
      "ĠSpanish": 3633,
      "Ġstatus": 3634,
      "ĠTaylor": 3635,
      "ĠChristmas": 3636,
      "Ġdom": 3637,
      "ĠBack": 3638,
      "ĠFowler": 3639,
      "Ġconcept": 3640,
      "Ġhelped": 3641,
      "Ġportray": 3642,
      "Ġslight": 3643,
      "ĠSeveral": 3644,
      "Ġund": 3645,
      "Ġtell": 3646,
      "Ġbatter": 3647,
      "ĠJo": 3648,
      "umed": 3649,
      "istics": 3650,
      "Ġplanned": 3651,
      "Ġsched": 3652,
      "Ġstarting": 3653,
      "Ġattacks": 3654,
      "Ġschools": 3655,
      "Ġexperi": 3656,
      "ĠAfrican": 3657,
      "Ġsuffered": 3658,
      "Ġtraditional": 3659,
      "Ġinformation": 3660,
      "Ġopt": 3661,
      "itor": 3662,
      "iser": 3663,
      "Ġdig": 3664,
      "Ġdark": 3665,
      "Ġgiving": 3666,
      "ĠPit": 3667,
      "alled": 3668,
      "ĠStorm": 3669,
      "Ġjud": 3670,
      "Ġspeed": 3671,
      "Ġperformances": 3672,
      "Ġfigure": 3673,
      "Ġassociated": 3674,
      "Ġinspired": 3675,
      "ĠInfantry": 3676,
      "AS": 3677,
      "ma": 3678,
      "Ġx": 3679,
      "itude": 3680,
      "Ġdivision": 3681,
      "Ġhusband": 3682,
      "ĠTw": 3683,
      "ĠSam": 3684,
      "ĠJane": 3685,
      "Ġclosed": 3686,
      "Ġabandon": 3687,
      "athan": 3688,
      "ĠArch": 3689,
      "Ġleaders": 3690,
      "embly": 3691,
      "Ġpresented": 3692,
      "Ġcondoms": 3693,
      "Ġsource": 3694,
      "ĠParty": 3695,
      "Ġmachine": 3696,
      "ĠSoviet": 3697,
      "awn": 3698,
      "Ġmur": 3699,
      "ĠFoot": 3700,
      "Ġvia": 3701,
      "Ġpresence": 3702,
      "Ġgreatest": 3703,
      "Ġinitial": 3704,
      "ĠSeries": 3705,
      "Ġraised": 3706,
      "Ġdetermin": 3707,
      "II": 3708,
      "iant": 3709,
      "mium": 3710,
      "Ġwound": 3711,
      "ĠCross": 3712,
      "ĠBob": 3713,
      "Ġexcept": 3714,
      "Ġunit": 3715,
      "Ġroom": 3716,
      "ĠVict": 3717,
      "Ġuses": 3718,
      "Ġwriters": 3719,
      "Ġcontinue": 3720,
      "Ġnearby": 3721,
      "aught": 3722,
      "ĠParis": 3723,
      "ĠCarolina": 3724,
      "Ġeducation": 3725,
      "Ġdocument": 3726,
      "ĠRosebery": 3727,
      "ĠVirginia": 3728,
      "Ã³n": 3729,
      "ylvania": 3730,
      "ks": 3731,
      "itation": 3732,
      "Ġnorm": 3733,
      "ĠBoy": 3734,
      "ĠLive": 3735,
      "Ġplot": 3736,
      "raf": 3737,
      "Ġuns": 3738,
      "Ġdism": 3739,
      "Ġimage": 3740,
      "iami": 3741,
      "Ġcollection": 3742,
      "Ġcovered": 3743,
      "Ġcyclone": 3744,
      "ĠPenns": 3745,
      "cing": 3746,
      "oration": 3747,
      "Ġhundred": 3748,
      "Ġrein": 3749,
      "olk": 3750,
      "ĠBen": 3751,
      "ĠJam": 3752,
      "ĠJust": 3753,
      "Ġchall": 3754,
      "Ġcomposed": 3755,
      "Ġweap": 3756,
      "ĠAnt": 3757,
      "Ġcomplex": 3758,
      "Ġannual": 3759,
      "Ġservices": 3760,
      "incip": 3761,
      "ĠQueen": 3762,
      "ĠCollege": 3763,
      "erve": 3764,
      "atre": 3765,
      "Ġbodies": 3766,
      "Ġreally": 3767,
      "ĠCer": 3768,
      "ĠRob": 3769,
      "eway": 3770,
      "Ġextended": 3771,
      "Ġ1997": 3772,
      "Ġnumerous": 3773,
      "Ġpolic": 3774,
      "Ġcommander": 3775,
      "Ġcathedral": 3776,
      "Ġproducer": 3777,
      "Ġfigures": 3778,
      "Ġterritory": 3779,
      "oncÃ©": 3780,
      "ĠBeyoncÃ©": 3781,
      "bar": 3782,
      "joy": 3783,
      "ken": 3784,
      "Ġtor": 3785,
      "Ġfell": 3786,
      "Ġpark": 3787,
      "Ġpath": 3788,
      "icted": 3789,
      "Ġthings": 3790,
      "ĠSix": 3791,
      "ĠMiami": 3792,
      "etic": 3793,
      "aging": 3794,
      "Ġdepend": 3795,
      "ĠOpen": 3796,
      "essa": 3797,
      "Ġenjoy": 3798,
      "ĠGermany": 3799,
      "ĠMuseum": 3800,
      "Ġproteins": 3801,
      "Ġvocals": 3802,
      "rical": 3803,
      "erbe": 3804,
      "anded": 3805,
      "ĠNations": 3806,
      "Ġsev": 3807,
      "ift": 3808,
      "Ġ39": 3809,
      "ously": 3810,
      "Ġprep": 3811,
      "Ġsomething": 3812,
      "Ġoperation": 3813,
      "ĠClub": 3814,
      "Ġwaters": 3815,
      "anz": 3816,
      "anas": 3817,
      "ĠTheir": 3818,
      "estival": 3819,
      "Ġcompanies": 3820,
      "ĠThrough": 3821,
      "Ġhighly": 3822,
      "Ġattacked": 3823,
      "Ġattempts": 3824,
      "Ġrequest": 3825,
      "Ġmorning": 3826,
      "Ġstrength": 3827,
      "Ġinvestig": 3828,
      "ĠService": 3829,
      "ny": 3830,
      "Ġtalk": 3831,
      "Ġreject": 3832,
      "admium": 3833,
      "ĠIll": 3834,
      "Ġaspect": 3835,
      "ander": 3836,
      "ĠInn": 3837,
      "Ġdise": 3838,
      "Ġfinanc": 3839,
      "Ġtransl": 3840,
      "Ġmetal": 3841,
      "Ġconfir": 3842,
      "ĠPrince": 3843,
      "Ġera": 3844,
      "Ġindividual": 3845,
      "Ġimmediately": 3846,
      "ĠPennsylvania": 3847,
      "lim": 3848,
      "Ġpil": 3849,
      "ĠSur": 3850,
      "ĠSquadron": 3851,
      "ademy": 3852,
      "uries": 3853,
      "Ġstone": 3854,
      "ĠGames": 3855,
      "ĠInter": 3856,
      "apo": 3857,
      "Ġnecess": 3858,
      "Ġinterse": 3859,
      "Ġincor": 3860,
      "Ġartist": 3861,
      "Ġdistance": 3862,
      "Ġallowing": 3863,
      "Ġpowerful": 3864,
      "Ġsituation": 3865,
      "Ġnuclear": 3866,
      "Ġremoved": 3867,
      "Ġpiano": 3868,
      "NA": 3869,
      "mon": 3870,
      "ply": 3871,
      "vement": 3872,
      "Ġhabit": 3873,
      "olf": 3874,
      "ĠHum": 3875,
      "ĠWater": 3876,
      "Ġselected": 3877,
      "ipp": 3878,
      "Ġrecover": 3879,
      "lands": 3880,
      "Ġoffered": 3881,
      "ibly": 3882,
      "Ġstudies": 3883,
      "Ġartillery": 3884,
      "Ġinside": 3885,
      "Ġadvance": 3886,
      "Ġvariety": 3887,
      "ĠJackson": 3888,
      "Ġneeded": 3889,
      "Ġpeaked": 3890,
      "ĠScotland": 3891,
      "TV": 3892,
      "Ġhot": 3893,
      "Ġnative": 3894,
      "chan": 3895,
      "Ġattend": 3896,
      "ĠJose": 3897,
      "Ġrate": 3898,
      "ĠUnder": 3899,
      "Ġ42": 3900,
      "Ġ182": 3901,
      "Ġmeans": 3902,
      "Ġ1991": 3903,
      "ĠChris": 3904,
      "Ġcountries": 3905,
      "Ġheadquarters": 3906,
      "Ġattempted": 3907,
      "ĠSomal": 3908,
      "Ġcopies": 3909,
      "pole": 3910,
      "Ġsaf": 3911,
      "rol": 3912,
      "ĠAI": 3913,
      "adium": 3914,
      "imony": 3915,
      "ether": 3916,
      "ĠLos": 3917,
      "Ġsearch": 3918,
      "ria": 3919,
      "anta": 3920,
      "Ġkick": 3921,
      "ĠChina": 3922,
      "Ġscoring": 3923,
      "ribution": 3924,
      "Ġprincip": 3925,
      "Ġcoach": 3926,
      "Ġtracks": 3927,
      "Ġhands": 3928,
      "Ġarchitect": 3929,
      "Ġcasual": 3930,
      "Ġrespectively": 3931,
      "Ġresponsible": 3932,
      "Ġpurp": 3933,
      "track": 3934,
      "een": 3935,
      "Ġpurs": 3936,
      "Ġmole": 3937,
      "ĠMajor": 3938,
      "Ġrule": 3939,
      "ĠOut": 3940,
      "Ġ47": 3941,
      "Ġsymb": 3942,
      "Ġdescribes": 3943,
      "Ġimpact": 3944,
      "Ġadvant": 3945,
      "Ġappearances": 3946,
      "ĠAnderson": 3947,
      "ĠBoth": 3948,
      "Ġgenus": 3949,
      "Ġhigher": 3950,
      "Ġwidely": 3951,
      "ĠDepartment": 3952,
      "Ġtouchdown": 3953,
      "cer": 3954,
      "ha": 3955,
      "ĠCrit": 3956,
      "cend": 3957,
      "ĠDan": 3958,
      "andid": 3959,
      "ĠNor": 3960,
      "Ġtext": 3961,
      "anger": 3962,
      "Ġspir": 3963,
      "orship": 3964,
      "Ġ1992": 3965,
      "Ġsets": 3966,
      "Ġcontrovers": 3967,
      "Ġcourse": 3968,
      "Ġobserved": 3969,
      "ĠCorps": 3970,
      "Ġsexual": 3971,
      "ĠBraat": 3972,
      "Ġheavily": 3973,
      "ĠFootball": 3974,
      "of": 3975,
      "rey": 3976,
      "reme": 3977,
      "Ġpick": 3978,
      "oud": 3979,
      "ĠAre": 3980,
      "Ġadult": 3981,
      "Ġ44": 3982,
      "ports": 3983,
      "Ġ1994": 3984,
      "Ġrelief": 3985,
      "Ġamb": 3986,
      "Ġbelow": 3987,
      "Ġphot": 3988,
      "Ġmiddle": 3989,
      "Ġmeeting": 3990,
      "Ġreduced": 3991,
      "ĠAlex": 3992,
      "Ġxenon": 3993,
      "iny": 3994,
      "Ġintern": 3995,
      "icient": 3996,
      "Ġang": 3997,
      "ĠLi": 3998,
      "ĠLike": 3999,
      "Ġplat": 4000,
      "Ġadminist": 4001,
      "Ġresulted": 4002,
      "Ġboy": 4003,
      "Ġsecret": 4004,
      "Ġactive": 4005,
      "Ġsinger": 4006,
      "Ġmatches": 4007,
      "Ġsixth": 4008,
      "ĠMinnes": 4009,
      "ricket": 4010,
      "Ġaudience": 4011,
      "Ġconcluded": 4012,
      "ĠMinnesota": 4013,
      "aen": 4014,
      "car": 4015,
      "ga": 4016,
      "lict": 4017,
      "ship": 4018,
      "Ġsal": 4019,
      "ĠTem": 4020,
      "ĠTime": 4021,
      "ils": 4022,
      "akapo": 4023,
      "Ġtrue": 4024,
      "Ġlands": 4025,
      "ĠFranc": 4026,
      "inkel": 4027,
      "Ġactivity": 4028,
      "Ġactivities": 4029,
      "Ġcompletely": 4030,
      "ĠVictor": 4031,
      "Ġess": 4032,
      "isher": 4033,
      "ĠSouthern": 4034,
      "cts": 4035,
      "Ġstating": 4036,
      "ĠDel": 4037,
      "send": 4038,
      "Ġmanaged": 4039,
      "Ġopportun": 4040,
      "ĠCenter": 4041,
      "ĠTownsend": 4042,
      "Ġrevealed": 4043,
      "Ġcontemporary": 4044,
      "like": 4045,
      "atives": 4046,
      "Ġfill": 4047,
      "Ġhour": 4048,
      "ems": 4049,
      "ocr": 4050,
      "ĠSea": 4051,
      "Ġquality": 4052,
      "Ġgraph": 4053,
      "ĠColon": 4054,
      "Ġrefused": 4055,
      "Ġlevels": 4056,
      "Ġdeclared": 4057,
      "Ġtrees": 4058,
      "Ġseparate": 4059,
      "ĠItalian": 4060,
      "cause": 4061,
      "iated": 4062,
      "Ġbad": 4063,
      "ication": 4064,
      "ĠSir": 4065,
      "ĠMidd": 4066,
      "ĠFinkel": 4067,
      "ĠLong": 4068,
      "ologist": 4069,
      "Ġblue": 4070,
      "annel": 4071,
      "Ġconstit": 4072,
      "ĠBecause": 4073,
      "rowd": 4074,
      "ĠForce": 4075,
      "Ġdrum": 4076,
      "ĠWalpole": 4077,
      "Ġquestion": 4078,
      "ĠHawai": 4079,
      "ĠMeyerbe": 4080,
      "ĠFinkelstein": 4081,
      "ĠMeyerbeer": 4082,
      "MS": 4083,
      "iqu": 4084,
      "ining": 4085,
      "Ġtoday": 4086,
      "lement": 4087,
      "ĠTessa": 4088,
      "ĠSol": 4089,
      "ify": 4090,
      "aped": 4091,
      "Ġuniversity": 4092,
      "peror": 4093,
      "Ġrecent": 4094,
      "Ġshell": 4095,
      "athus": 4096,
      "Ġblood": 4097,
      "Ġbackground": 4098,
      "ĠShiva": 4099,
      "Ġfeaturing": 4100,
      "Ġinstit": 4101,
      "Ġcarry": 4102,
      "Ġmodel": 4103,
      "Ġapproach": 4104,
      "Ġcontrast": 4105,
      "Ġhistorical": 4106,
      "Ġtypically": 4107,
      "Ġparents": 4108,
      "ares": 4109,
      "Ġiron": 4110,
      "Ġactions": 4111,
      "Ġpaper": 4112,
      "ĠCast": 4113,
      "Ġris": 4114,
      "oph": 4115,
      "Ġexpected": 4116,
      "Ġ51": 4117,
      "ĠYue": 4118,
      "Ġ76": 4119,
      "Ġdescript": 4120,
      "Ġissues": 4121,
      "Ġconditions": 4122,
      "Ġmultip": 4123,
      "ĠSmith": 4124,
      "ĠSociety": 4125,
      "ĠOttoman": 4126,
      "ĠNicole": 4127,
      "uff": 4128,
      "Ġtax": 4129,
      "hew": 4130,
      "Ġwing": 4131,
      "alty": 4132,
      "ican": 4133,
      "Ġreception": 4134,
      "ĠMill": 4135,
      "ĠBet": 4136,
      "utch": 4137,
      "ĠWild": 4138,
      "ĠLit": 4139,
      "Ġrhy": 4140,
      "Ġcompos": 4141,
      "rawn": 4142,
      "Ġplays": 4143,
      "Ġattention": 4144,
      "Ġweaken": 4145,
      "oint": 4146,
      "Ġpeace": 4147,
      "Ġentr": 4148,
      "Ġmainly": 4149,
      "Ġefforts": 4150,
      "Ġbecomes": 4151,
      "Ġhouses": 4152,
      "force": 4153,
      "cle": 4154,
      "Ġwit": 4155,
      "Ġpow": 4156,
      "Ġnation": 4157,
      "ĠBalt": 4158,
      "ĠJim": 4159,
      "ĠEmp": 4160,
      "Ġ37": 4161,
      "Ġresidents": 4162,
      "Ġoffer": 4163,
      "ounds": 4164,
      "Ġwebs": 4165,
      "Ġspecim": 4166,
      "Ġsubs": 4167,
      "Ġgrand": 4168,
      "Ġemot": 4169,
      "Ġbrown": 4170,
      "ervation": 4171,
      "Ġstrugg": 4172,
      "shire": 4173,
      "ĠHighway": 4174,
      "Ġvehic": 4175,
      "ĠBraathens": 4176,
      "ging": 4177,
      "rate": 4178,
      "Ġsense": 4179,
      "isl": 4180,
      "Ġlot": 4181,
      "Ġnarr": 4182,
      "ado": 4183,
      "ĠDam": 4184,
      "Ġconsec": 4185,
      "Ġactually": 4186,
      "Ġcalling": 4187,
      "Ġtitles": 4188,
      "Ġmagn": 4189,
      "Ġsoundtrack": 4190,
      "ĠHait": 4191,
      "ufact": 4192,
      "bed": 4193,
      "ware": 4194,
      "Ġtask": 4195,
      "het": 4196,
      "eds": 4197,
      "Ġhair": 4198,
      "ĠDire": 4199,
      "ĠNes": 4200,
      "ellig": 4201,
      "Ġroy": 4202,
      "Ġroles": 4203,
      "Ġseasons": 4204,
      "Ġwrite": 4205,
      "ĠJohnson": 4206,
      "ĠBlue": 4207,
      "ĠAdam": 4208,
      "Ġstruck": 4209,
      "Ġdemonst": 4210,
      "Ġaccepted": 4211,
      "Ġachieved": 4212,
      "Ġcannot": 4213,
      "ĠCourt": 4214,
      "ĠIllino": 4215,
      "uated": 4216,
      "Ġathlet": 4217,
      "Ġwear": 4218,
      "Ġbene": 4219,
      "icip": 4220,
      "Ġlif": 4221,
      "imin": 4222,
      "ĠDem": 4223,
      "ĠCharl": 4224,
      "Ġrecomm": 4225,
      "Ġresc": 4226,
      "Ġinstr": 4227,
      "Ġfamil": 4228,
      "uese": 4229,
      "Ġrespond": 4230,
      "Ġprotein": 4231,
      "Ġviewers": 4232,
      "arent": 4233,
      "Ġvocal": 4234,
      "Ġpractice": 4235,
      "ĠVietnam": 4236,
      "ĠPortuguese": 4237,
      "hood": 4238,
      "onents": 4239,
      "Ġcorn": 4240,
      "Ġcrowd": 4241,
      "Ġfiction": 4242,
      "Ġthous": 4243,
      "Ġbeat": 4244,
      "ĠFey": 4245,
      "aine": 4246,
      "ĠJul": 4247,
      "rial": 4248,
      "appen": 4249,
      "Ġ48": 4250,
      "ĠThunder": 4251,
      "Ġ181": 4252,
      "Ġscient": 4253,
      "Ġelev": 4254,
      "Ġavoid": 4255,
      "Ġprimarily": 4256,
      "Ġsequence": 4257,
      "ĠGovernment": 4258,
      "ĠAcademy": 4259,
      "Ġchem": 4260,
      "itual": 4261,
      "ĠTy": 4262,
      "ĠTod": 4263,
      "Ġlb": 4264,
      "ĠCivil": 4265,
      "ĠGar": 4266,
      "ĠOf": 4267,
      "ĠEr": 4268,
      "essions": 4269,
      "Ġ52": 4270,
      "Ġboard": 4271,
      "Ġspread": 4272,
      "ĠRev": 4273,
      "Ġelected": 4274,
      "Ġ1986": 4275,
      "venue": 4276,
      "Ġinfantry": 4277,
      "Ġowned": 4278,
      "ĠColumb": 4279,
      "Ġtwenty": 4280,
      "Ġcombat": 4281,
      "Ġtypes": 4282,
      "Ġslightly": 4283,
      "ding": 4284,
      "hold": 4285,
      "writ": 4286,
      "Ġsales": 4287,
      "Ġsister": 4288,
      "anes": 4289,
      "Ġmax": 4290,
      "Ġnin": 4291,
      "acher": 4292,
      "ĠRam": 4293,
      "Ġaltern": 4294,
      "ulations": 4295,
      "ĠLand": 4296,
      "Ġplant": 4297,
      "ĠKr": 4298,
      "Ġscale": 4299,
      "Ġoffensive": 4300,
      "Ġsport": 4301,
      "ĠNews": 4302,
      "Ġinches": 4303,
      "ĠEngine": 4304,
      "Ġ150": 4305,
      "Ġexpressed": 4306,
      "Ġconcent": 4307,
      "ĠSpain": 4308,
      "Ġrights": 4309,
      "Ġnortheast": 4310,
      "Ġaffected": 4311,
      "ĠCaptain": 4312,
      "Ġwords": 4313,
      "Ġhorse": 4314,
      "ĠMog": 4315,
      "ĠHorse": 4316,
      "ulpt": 4317,
      "estic": 4318,
      "Ġ34": 4319,
      "Ġrough": 4320,
      "Ġ180": 4321,
      "Ġsculpt": 4322,
      "Ġneigh": 4323,
      "ĠReview": 4324,
      "Ġshowed": 4325,
      "Ġofficer": 4326,
      "aha": 4327,
      "ograph": 4328,
      "Äģd": 4329,
      "ceeded": 4330,
      "cription": 4331,
      "ĠLouis": 4332,
      "ĠGroup": 4333,
      "bury": 4334,
      "uit": 4335,
      "vin": 4336,
      "Ġsout": 4337,
      "Ġspl": 4338,
      "Ġwalk": 4339,
      "Ġpup": 4340,
      "road": 4341,
      "ĠTint": 4342,
      "ĠMal": 4343,
      "ushed": 4344,
      "ĠWels": 4345,
      "ĠGreen": 4346,
      "Ġsuc": 4347,
      "Ġability": 4348,
      "ĠYoung": 4349,
      "Ġthemes": 4350,
      "ledge": 4351,
      "ĠZhou": 4352,
      "Ġcounty": 4353,
      "Ġbattalion": 4354,
      "Ġwindow": 4355,
      "Ġcombined": 4356,
      "ĠSecret": 4357,
      "ĠVaranas": 4358,
      "ĠLittle": 4359,
      "ĠEmpire": 4360,
      "ĠTintin": 4361,
      "ĠWelsh": 4362,
      "ĠVaranasi": 4363,
      "FA": 4364,
      "house": 4365,
      "light": 4366,
      "nh": 4367,
      "Ġfruit": 4368,
      "arrow": 4369,
      "Ġpun": 4370,
      "ingu": 4371,
      "Ġrear": 4372,
      "Ġsust": 4373,
      "ĠThough": 4374,
      "Ġprec": 4375,
      "Ġtitled": 4376,
      "Ġprogress": 4377,
      "ĠAndrew": 4378,
      "Ġcultural": 4379,
      "bitt": 4380,
      "onymous": 4381,
      "Ġincorpor": 4382,
      "Ġcasualties": 4383,
      "ĠNesbitt": 4384,
      "BA": 4385,
      "mun": 4386,
      "Ġsquare": 4387,
      "Ġmountain": 4388,
      "ĠManc": 4389,
      "ĠBurn": 4390,
      "ĠDist": 4391,
      "emic": 4392,
      "umber": 4393,
      "Ġremark": 4394,
      "Ġproduce": 4395,
      "Ġcontinues": 4396,
      "Ġsays": 4397,
      "Ġearliest": 4398,
      "ĠEva": 4399,
      "ironment": 4400,
      "Ġexcav": 4401,
      "ĠOdaen": 4402,
      "ĠAngeles": 4403,
      "Ġmentioned": 4404,
      "Ġancient": 4405,
      "Ġnewspaper": 4406,
      "Ġmurder": 4407,
      "ĠCeres": 4408,
      "Ġrecommend": 4409,
      "ĠOdaenathus": 4410,
      "Mont": 4411,
      "eter": 4412,
      "Ġfully": 4413,
      "Ġinh": 4414,
      "Ġdyn": 4415,
      "Ġhol": 4416,
      "ĠTurn": 4417,
      "ĠSarn": 4418,
      "ĠSpec": 4419,
      "omer": 4420,
      "ĠBook": 4421,
      "ĠHome": 4422,
      "etts": 4423,
      "oses": 4424,
      "Ġchampionship": 4425,
      "Ġmanufact": 4426,
      "Ġactor": 4427,
      "Ġartists": 4428,
      "Ġdistinct": 4429,
      "ĠConf": 4430,
      "ĠCommun": 4431,
      "pedo": 4432,
      "ĠTrans": 4433,
      "Ġresulting": 4434,
      "Ġ1920": 4435,
      "Ġauthorities": 4436,
      "Ġinfluenced": 4437,
      "ĠRecords": 4438,
      "Ġflooding": 4439,
      "ĠDuMont": 4440,
      "ĠOlympic": 4441,
      "Ġcerem": 4442,
      "Ġadopted": 4443,
      "Ġdisease": 4444,
      "ĠSarnia": 4445,
      "ev": 4446,
      "gal": 4447,
      "enant": 4448,
      "Ġmission": 4449,
      "utions": 4450,
      "ĠRad": 4451,
      "Ġreports": 4452,
      "ĠAdd": 4453,
      "ĠOrigin": 4454,
      "Ġbasis": 4455,
      "ĠPerÃ³n": 4456,
      "Ġrepresented": 4457,
      "while": 4458,
      "Ġadvantage": 4459,
      "ĠIllinois": 4460,
      "bird": 4461,
      "nown": 4462,
      "Ġtoward": 4463,
      "Ġhar": 4464,
      "Ġrepe": 4465,
      "ĠBol": 4466,
      "Ġalone": 4467,
      "ĠJos": 4468,
      "ĠOm": 4469,
      "Ġcoming": 4470,
      "ovic": 4471,
      "ĠArg": 4472,
      "Ġassault": 4473,
      "Ġapparent": 4474,
      "Ġdefense": 4475,
      "Ġqual": 4476,
      "Ġgrass": 4477,
      "ĠCont": 4478,
      "helm": 4479,
      "Ġletters": 4480,
      "Ġtower": 4481,
      "ĠApple": 4482,
      "Ġtournament": 4483,
      "ĠThunderbird": 4484,
      "ĠMogad": 4485,
      "ĠManchester": 4486,
      "Ġsides": 4487,
      "nds": 4488,
      "orus": 4489,
      "Ġreign": 4490,
      "Ġreact": 4491,
      "ĠSR": 4492,
      "ĠSal": 4493,
      "imb": 4494,
      "ĠFred": 4495,
      "ĠWash": 4496,
      "Ġexhib": 4497,
      "Ġkakapo": 4498,
      "Ġarmed": 4499,
      "Ġworkers": 4500,
      "Ġrelatively": 4501,
      "ĠDef": 4502,
      "ocks": 4503,
      "Ġfounded": 4504,
      "Ġbridge": 4505,
      "Ġalongside": 4506,
      "Ġoccasion": 4507,
      "Ġnorthwest": 4508,
      "Ġencour": 4509,
      "Ġwithdraw": 4510,
      "Ġtorpedo": 4511,
      "ĠWashington": 4512,
      "lin": 4513,
      "mir": 4514,
      "Ġcadmium": 4515,
      "Ġfa": 4516,
      "room": 4517,
      "Ġlosing": 4518,
      "Ġnest": 4519,
      "Ġnarrow": 4520,
      "ĠPost": 4521,
      "ĠFour": 4522,
      "ĠDou": 4523,
      "Ġattended": 4524,
      "ĠOcean": 4525,
      "Ġyellow": 4526,
      "Ġcontain": 4527,
      "Ġmechan": 4528,
      "Ġ1988": 4529,
      "Ġdirection": 4530,
      "Ġtermin": 4531,
      "Ġofficially": 4532,
      "Ġedition": 4533,
      "Ġtried": 4534,
      "Ġorganized": 4535,
      "Ġcapture": 4536,
      "Ġlegal": 4537,
      "Ġindividuals": 4538,
      "Ġillust": 4539,
      "Ġtransferred": 4540,
      "Ġmess": 4541,
      "Ġmile": 4542,
      "ĠAv": 4543,
      "ĠWay": 4544,
      "osen": 4545,
      "Ġproved": 4546,
      "abama": 4547,
      "eller": 4548,
      "ogue": 4549,
      "Ġperman": 4550,
      "ĠAlabama": 4551,
      "ension": 4552,
      "Ġacting": 4553,
      "Ġeffort": 4554,
      "ĠClark": 4555,
      "ĠProdu": 4556,
      "Ġrequire": 4557,
      "Ġofficials": 4558,
      "Ġmeasure": 4559,
      "Ġphysical": 4560,
      "Ġsurrounding": 4561,
      "Ġdedicated": 4562,
      "ĠMiddle": 4563,
      "ĠOmaha": 4564,
      "AA": 4565,
      "mes": 4566,
      "Ġcandid": 4567,
      "Ġdu": 4568,
      "Ġthir": 4569,
      "Ġlives": 4570,
      "Ġeye": 4571,
      "ĠMD": 4572,
      "Ġstarl": 4573,
      "usion": 4574,
      "Ġrang": 4575,
      "ricult": 4576,
      "Ġenergy": 4577,
      "Ġprin": 4578,
      "Ġdoing": 4579,
      "prise": 4580,
      "Ġemph": 4581,
      "Ġedge": 4582,
      "Ġextr": 4583,
      "Ġconflict": 4584,
      "Ġcouple": 4585,
      "Ġrainfall": 4586,
      "ien": 4587,
      "right": 4588,
      "wen": 4589,
      "ading": 4590,
      "adel": 4591,
      "imore": 4592,
      "ishu": 4593,
      "Ġprepar": 4594,
      "ĠReception": 4595,
      "Ġfollows": 4596,
      "Ġdesignated": 4597,
      "ĠMean": 4598,
      "Ġshortly": 4599,
      "Ġpossibly": 4600,
      "Ġpattern": 4601,
      "Ġdivided": 4602,
      "Ġintensity": 4603,
      "ĠHelms": 4604,
      "Ġfinancial": 4605,
      "ĠMogadishu": 4606,
      "mond": 4607,
      "Ġir": 4608,
      "Ġfaced": 4609,
      "Ġpaid": 4610,
      "Ġhun": 4611,
      "ĠSch": 4612,
      "ols": 4613,
      "ĠHal": 4614,
      "ĠFam": 4615,
      "ĠFant": 4616,
      "ĠLord": 4617,
      "Ġvo": 4618,
      "Ġven": 4619,
      "Ġshape": 4620,
      "Ġyour": 4621,
      "Ġyoun": 4622,
      "Ġ49": 4623,
      "Ġimages": 4624,
      "Ġ65": 4625,
      "Ġalbums": 4626,
      "Ġ1964": 4627,
      "Ġsimply": 4628,
      "Ġwinter": 4629,
      "Ġolder": 4630,
      "ĠEdward": 4631,
      "Ġsociety": 4632,
      "Ġsources": 4633,
      "ĠWilhelm": 4634,
      "Ġdetermined": 4635,
      "ĠInnis": 4636,
      "Ġmaximum": 4637,
      "lied": 4638,
      "mit": 4639,
      "rane": 4640,
      "Ġaid": 4641,
      "Ġple": 4642,
      "ĠCons": 4643,
      "Ġonto": 4644,
      "ĠMax": 4645,
      "ĠBre": 4646,
      "Ġstep": 4647,
      "ĠNC": 4648,
      "Ġrat": 4649,
      "Ġraid": 4650,
      "Ġcomedy": 4651,
      "Ġchief": 4652,
      "Ġplaces": 4653,
      "ĠKent": 4654,
      "orses": 4655,
      "ugby": 4656,
      "ĠIndepend": 4657,
      "Ġbroken": 4658,
      "Ġportion": 4659,
      "Ġbehav": 4660,
      "ĠAssembly": 4661,
      "Ġkept": 4662,
      "Ġfunction": 4663,
      "ĠHistor": 4664,
      "Ġpiece": 4665,
      "Ġdissip": 4666,
      "Ġpotential": 4667,
      "Ġjournal": 4668,
      "uzz": 4669,
      "Ġborder": 4670,
      "ĠJoseph": 4671,
      "Ġemphas": 4672,
      "onna": 4673,
      "Ġsac": 4674,
      "Ġcities": 4675,
      "ental": 4676,
      "igan": 4677,
      "use": 4678,
      "ĠFleet": 4679,
      "ĠJup": 4680,
      "ĠJourn": 4681,
      "Ġunivers": 4682,
      "Ġadvert": 4683,
      "Ġcharge": 4684,
      "Ġmovie": 4685,
      "ĠCommission": 4686,
      "Ġprotect": 4687,
      "Ġargued": 4688,
      "ĠMcCall": 4689,
      "Station": 4690,
      "rid": 4691,
      "Ġwild": 4692,
      "Ġfeder": 4693,
      "Ġfolk": 4694,
      "Ġmind": 4695,
      "Ġthr": 4696,
      "ada": 4697,
      "Ġgrew": 4698,
      "ĠRih": 4699,
      "ĠFer": 4700,
      "Ġheart": 4701,
      "oper": 4702,
      "Ġcontent": 4703,
      "ĠVan": 4704,
      "Ġcolor": 4705,
      "Ġdepth": 4706,
      "Ġsuggests": 4707,
      "Ġauthority": 4708,
      "Ġsites": 4709,
      "Ġprojects": 4710,
      "Ġmanagement": 4711,
      "ĠHamels": 4712,
      "ĠPlayStation": 4713,
      "Ġdomestic": 4714,
      "ĠBaltimore": 4715,
      "ĠArgent": 4716,
      "ĠRihanna": 4717,
      "Ġwor": 4718,
      "Ġwave": 4719,
      "edar": 4720,
      "atops": 4721,
      "Ġpaint": 4722,
      "rown": 4723,
      "Ġdut": 4724,
      "lection": 4725,
      "iled": 4726,
      "acement": 4727,
      "Ġgained": 4728,
      "ĠBowl": 4729,
      "ĠRh": 4730,
      "ĠDest": 4731,
      "ĠGreek": 4732,
      "Ġroll": 4733,
      "Ġscience": 4734,
      "Ġweak": 4735,
      "Ġ64": 4736,
      "Ġprison": 4737,
      "Ġmuseum": 4738,
      "Ġbelong": 4739,
      "Ġdepart": 4740,
      "ĠCommon": 4741,
      "Ġlegisl": 4742,
      "Ġcausing": 4743,
      "Ġtwice": 4744,
      "Ġcriticized": 4745,
      "Ġstructures": 4746,
      "Ġletter": 4747,
      "ĠValley": 4748,
      "Ġtarget": 4749,
      "Ġultimately": 4750,
      "Ġschedul": 4751,
      "Ġentrance": 4752,
      "Ġwebsite": 4753,
      "Ġroyal": 4754,
      "ex": 4755,
      "je": 4756,
      "kare": 4757,
      "lies": 4758,
      "Ġunk": 4759,
      "edkare": 4760,
      "Ġfit": 4761,
      "Ġfung": 4762,
      "ening": 4763,
      "ani": 4764,
      "ĠTru": 4765,
      "ented": 4766,
      "enture": 4767,
      "ĠCra": 4768,
      "Ġvess": 4769,
      "Ġshare": 4770,
      "Ġcontaining": 4771,
      "Ġneut": 4772,
      "Ġformation": 4773,
      "Ġextra": 4774,
      "Ġresults": 4775,
      "ĠWeek": 4776,
      "Ġdebuted": 4777,
      "ĠPalest": 4778,
      "Ġdoub": 4779,
      "Ġhomes": 4780,
      "ĠDjedkare": 4781,
      "ĠJupiter": 4782,
      "mission": 4783,
      "wide": 4784,
      "Ġhospital": 4785,
      "ĠMass": 4786,
      "ĠWrit": 4787,
      "ĠGall": 4788,
      "Ġdeploy": 4789,
      "Ġchosen": 4790,
      "Ġkg": 4791,
      "asty": 4792,
      "claim": 4793,
      "ĠVen": 4794,
      "Ġagg": 4795,
      "Ġdefence": 4796,
      "Ġdefensive": 4797,
      "Ġ1947": 4798,
      "Ġartic": 4799,
      "ĠConstant": 4800,
      "Ġbattles": 4801,
      "Ġforeign": 4802,
      "ĠTorres": 4803,
      "Ġopin": 4804,
      "Ġlabel": 4805,
      "VD": 4806,
      "bour": 4807,
      "Ġcore": 4808,
      "Ġinch": 4809,
      "Ġmouth": 4810,
      "Ġmaster": 4811,
      "ĠSen": 4812,
      "ĠSar": 4813,
      "ĠHib": 4814,
      "ĠHorn": 4815,
      "ĠDVD": 4816,
      "ĠNight": 4817,
      "ĠLis": 4818,
      "ĠLew": 4819,
      "umes": 4820,
      "ĠEastern": 4821,
      "resh": 4822,
      "acks": 4823,
      "ĠKore": 4824,
      "Ġsecurity": 4825,
      "Ġbrigade": 4826,
      "Ġprominent": 4827,
      "Ġstanding": 4828,
      "Ġreference": 4829,
      "Ġfrag": 4830,
      "Ġgrowing": 4831,
      "Ġanimal": 4832,
      "Ġburied": 4833,
      "Ġgranted": 4834,
      "Ġabandoned": 4835,
      "Ġdismiss": 4836,
      "Ġrejected": 4837,
      "Ġconsecutive": 4838,
      "inary": 4839,
      "ĠSil": 4840,
      "ĠFA": 4841,
      "ĠOnce": 4842,
      "ĠAnn": 4843,
      "Ġcolony": 4844,
      "Ġtherefore": 4845,
      "Ġ1941": 4846,
      "Ġvisited": 4847,
      "Ġorganization": 4848,
      "Ġclaims": 4849,
      "Ġtemple": 4850,
      "Ġorders": 4851,
      "Ġcells": 4852,
      "white": 4853,
      "ĠScottish": 4854,
      "ĠForest": 4855,
      "Ġrisk": 4856,
      "ĠApplewhite": 4857,
      "met": 4858,
      "Ġrom": 4859,
      "nding": 4860,
      "Ġmel": 4861,
      "roll": 4862,
      "stone": 4863,
      "ĠLo": 4864,
      "Ġseek": 4865,
      "iana": 4866,
      "ĠChap": 4867,
      "Ġjump": 4868,
      "Ġspot": 4869,
      "Ġremix": 4870,
      "Ġregions": 4871,
      "Ġseconds": 4872,
      "phia": 4873,
      "Ġsingles": 4874,
      "Ġ1987": 4875,
      "ĠShort": 4876,
      "Ġstudent": 4877,
      "Ġminer": 4878,
      "Ġbroke": 4879,
      "ĠAirport": 4880,
      "Ġcondition": 4881,
      "Ġindependent": 4882,
      "Ġwounded": 4883,
      "adelphia": 4884,
      "ML": 4885,
      "mark": 4886,
      "Ġahead": 4887,
      "Ġfix": 4888,
      "isters": 4889,
      "ĠTri": 4890,
      "Ġreaching": 4891,
      "ĠAp": 4892,
      "ĠCam": 4893,
      "ĠBig": 4894,
      "ĠPop": 4895,
      "ĠInstitute": 4896,
      "ĠChild": 4897,
      "Ġintellig": 4898,
      "Ġadj": 4899,
      "Ġenemy": 4900,
      "ĠAtt": 4901,
      "Ġenter": 4902,
      "ertain": 4903,
      "ancy": 4904,
      "Ġversions": 4905,
      "Ġcollect": 4906,
      "Ġplanet": 4907,
      "Ġsolo": 4908,
      "Ġcases": 4909,
      "Ġidentified": 4910,
      "Ġcollabor": 4911,
      "Ġnominated": 4912,
      "Ġseems": 4913,
      "ĠEgyptian": 4914,
      "Ġtemperature": 4915,
      "Ġequipment": 4916,
      "Ġmoment": 4917,
      "ĠBackground": 4918,
      "ech": 4919,
      "Ġaired": 4920,
      "Ġbott": 4921,
      "Ġmales": 4922,
      "ĠSAF": 4923,
      "ĠBBC": 4924,
      "ims": 4925,
      "ĠFurther": 4926,
      "ĠDue": 4927,
      "Ġconver": 4928,
      "Ġheight": 4929,
      "ĠUs": 4930,
      "Ġunique": 4931,
      "Ġ53": 4932,
      "Ġnewly": 4933,
      "Ġelement": 4934,
      "Ġ120": 4935,
      "Ġ1984": 4936,
      "Ġ1989": 4937,
      "Ġ1972": 4938,
      "Ġreturning": 4939,
      "Ġsupporting": 4940,
      "ĠBefore": 4941,
      "Ġcampus": 4942,
      "Ġopposed": 4943,
      "Ġknowledge": 4944,
      "Ġproblem": 4945,
      "ĠCroatia": 4946,
      "ĠSAFE": 4947,
      "uous": 4948,
      "Ġtur": 4949,
      "rete": 4950,
      "Ġwa": 4951,
      "Ġfle": 4952,
      "Ġfear": 4953,
      "Ġfired": 4954,
      "Ġdress": 4955,
      "iles": 4956,
      "ĠMike": 4957,
      "ĠBir": 4958,
      "ety": 4959,
      "ĠGood": 4960,
      "ĠLock": 4961,
      "ĠEach": 4962,
      "ocated": 4963,
      "astic": 4964,
      "Ġteacher": 4965,
      "Ġweight": 4966,
      "Ġinterp": 4967,
      "Ġ1985": 4968,
      "ĠIndust": 4969,
      "Ġoperated": 4970,
      "Ġlooking": 4971,
      "Ġincreasingly": 4972,
      "Ġliterature": 4973,
      "Ġconnect": 4974,
      "ĠOperation": 4975,
      "Ġanalysis": 4976,
      "Ġunknown": 4977,
      "bon": 4978,
      "iate": 4979,
      "Ġtun": 4980,
      "Ġtheory": 4981,
      "Ġcouncil": 4982,
      "asters": 4983,
      "igg": 4984,
      "ĠHMS": 4985,
      "ĠPo": 4986,
      "ĠField": 4987,
      "ĠLar": 4988,
      "Ġhere": 4989,
      "Ġshr": 4990,
      "Ġcompr": 4991,
      "Ġwrites": 4992,
      "Ġdefin": 4993,
      "Ġbelieve": 4994,
      "Ġexplained": 4995,
      "Ġbreeding": 4996,
      "Ġcommonly": 4997,
      "ĠBarrow": 4998,
      "Ġhistorian": 4999,
      "Ġideas": 5000,
      "Ġburns": 5001,
      "ĠCardiff": 5002,
      "Ġsettlement": 5003,
      "Ġenvironment": 5004,
      "Ġconfirmed": 5005,
      "mosp": 5006,
      "Ġox": 5007,
      "Ġoil": 5008,
      "atch": 5009,
      "orter": 5010,
      "Ġcricket": 5011,
      "Ġbud": 5012,
      "ĠSum": 5013,
      "ĠMore": 5014,
      "Ġstations": 5015,
      "ĠPublic": 5016,
      "ĠRA": 5017,
      "Ġalter": 5018,
      "Ġatmosp": 5019,
      "ĠOx": 5020,
      "ortal": 5021,
      "Ġarrest": 5022,
      "Ġherself": 5023,
      "Ġperfect": 5024,
      "Ġ55": 5025,
      "ibr": 5026,
      "ĠOnly": 5027,
      "Ġconsisted": 5028,
      "hips": 5029,
      "Ġsinging": 5030,
      "Ġ1944": 5031,
      "Ġadvanced": 5032,
      "Ġsystems": 5033,
      "Ġphil": 5034,
      "Ġfemales": 5035,
      "ĠMichigan": 5036,
      "ĠPhiladelphia": 5037,
      "Ġproperty": 5038,
      "Ġeconomic": 5039,
      "Ġscholars": 5040,
      "Ġcontrolled": 5041,
      "ĠEntertain": 5042,
      "Ġmolec": 5043,
      "yes": 5044,
      "Ġfast": 5045,
      "Ġfox": 5046,
      "alions": 5047,
      "Ġparliament": 5048,
      "Ġmount": 5049,
      "Ġhappen": 5050,
      "ĠMounted": 5051,
      "ĠNorm": 5052,
      "ĠNever": 5053,
      "ĠJon": 5054,
      "Ġdeities": 5055,
      "odon": 5056,
      "ĠEven": 5057,
      "Ġmaintained": 5058,
      "Ġgrowth": 5059,
      "ĠKeats": 5060,
      "appy": 5061,
      "ĠSwed": 5062,
      "Ġdevot": 5063,
      "Ġstrengt": 5064,
      "Ġpieces": 5065,
      "Ġfailure": 5066,
      "Ġdropped": 5067,
      "Ġkilomet": 5068,
      "ĠMeanwhile": 5069,
      "tav": 5070,
      "Ġawards": 5071,
      "Ġsens": 5072,
      "isation": 5073,
      "Ġpan": 5074,
      "ĠBon": 5075,
      "ĠDutch": 5076,
      "istry": 5077,
      "Ġcompar": 5078,
      "ĠAlbum": 5079,
      "ĠArm": 5080,
      "Ġfilmed": 5081,
      "Ġcreation": 5082,
      "Ġlandfall": 5083,
      "ĠCarl": 5084,
      "ĠClass": 5085,
      "Ġkilling": 5086,
      "Ġfreeway": 5087,
      "ĠWilliams": 5088,
      "Ġpitched": 5089,
      "ĠMorr": 5090,
      "Ġstrike": 5091,
      "Ġhonor": 5092,
      "Ġflying": 5093,
      "Ġinjury": 5094,
      "ĠAddition": 5095,
      "aling": 5096,
      "Ġmounted": 5097,
      "Ġhorses": 5098,
      "ĠBan": 5099,
      "Ġconne": 5100,
      "ĠNathan": 5101,
      "agan": 5102,
      "ĠJur": 5103,
      "ighth": 5104,
      "Ġextend": 5105,
      "Ġtry": 5106,
      "ieval": 5107,
      "Ġ43": 5108,
      "Ġresemb": 5109,
      "Ġboats": 5110,
      "ĠItaly": 5111,
      "Ġserve": 5112,
      "Ġspeak": 5113,
      "Ġ600": 5114,
      "Ġretired": 5115,
      "Ġactress": 5116,
      "airs": 5117,
      "Ġexped": 5118,
      "ĠAndy": 5119,
      "Ġbelief": 5120,
      "Ġhumans": 5121,
      "ĠSteve": 5122,
      "Ġpromoted": 5123,
      "Ġvalue": 5124,
      "urban": 5125,
      "ĠCongress": 5126,
      "ĠPrem": 5127,
      "Ġrapidly": 5128,
      "Ġbattery": 5129,
      "Ġweapons": 5130,
      "lers": 5131,
      "sw": 5132,
      "Ġselling": 5133,
      "Ġbid": 5134,
      "Ġpict": 5135,
      "stream": 5136,
      "Ġstra": 5137,
      "Ġ56": 5138,
      "Ġimag": 5139,
      "Ġweather": 5140,
      "ĠAmericans": 5141,
      "Ġinvasion": 5142,
      "ĠConference": 5143,
      "Ġpasses": 5144,
      "Ġpassing": 5145,
      "Ġpublication": 5146,
      "ĠMinister": 5147,
      "ĠAbu": 5148,
      "Ġsignificantly": 5149,
      "Ġcougar": 5150,
      "Ġreligion": 5151,
      "Ġpromotion": 5152,
      "Ġrecognized": 5153,
      "Ġcreating": 5154,
      "Ġconnected": 5155,
      "Ġsemi": 5156,
      "Ġpremi": 5157,
      "Ġprepared": 5158,
      "Ġdescription": 5159,
      "Ġmultiple": 5160,
      "Ġfederal": 5161,
      "Ġstraight": 5162,
      "Le": 5163,
      "haps": 5164,
      "more": 5165,
      "pass": 5166,
      "uge": 5167,
      "Ġast": 5168,
      "Ġsought": 5169,
      "itch": 5170,
      "Ġbats": 5171,
      "asure": 5172,
      "Ġdata": 5173,
      "oured": 5174,
      "ĠSor": 5175,
      "oty": 5176,
      "ĠFinal": 5177,
      "ĠGord": 5178,
      "Ġchose": 5179,
      "ĠVideo": 5180,
      "ampion": 5181,
      "Ġcolumn": 5182,
      "ĠDevelop": 5183,
      "Ġleader": 5184,
      "Ġfamous": 5185,
      "Ġmatter": 5186,
      "Ġrestaur": 5187,
      "ĠGuard": 5188,
      "Ġdeliver": 5189,
      "Ġpopularity": 5190,
      "arrison": 5191,
      "Ġprotest": 5192,
      "Ġproducers": 5193,
      "Ġvolume": 5194,
      "Ġwalls": 5195,
      "Ġregarded": 5196,
      "Ġseventh": 5197,
      "Ġaspects": 5198,
      "Ġnecessary": 5199,
      "Ġscheduled": 5200,
      "gn": 5201,
      "uild": 5202,
      "Ġsand": 5203,
      "Ġcust": 5204,
      "ano": 5205,
      "Ġreaction": 5206,
      "Ġlaid": 5207,
      "ĠMatt": 5208,
      "ĠPet": 5209,
      "ĠRog": 5210,
      "Ġconvers": 5211,
      "ersey": 5212,
      "agement": 5213,
      "Ġrise": 5214,
      "ella": 5215,
      "Ġ46": 5216,
      "Ġagricult": 5217,
      "Ġspect": 5218,
      "icks": 5219,
      "amese": 5220,
      "Ġflank": 5221,
      "Ġ1981": 5222,
      "Ġstarts": 5223,
      "Ġlanding": 5224,
      "Ġguest": 5225,
      "heless": 5226,
      "Ġaccompan": 5227,
      "ĠVietnamese": 5228,
      "ĠJeff": 5229,
      "Ġnucleus": 5230,
      "Ġsustained": 5231,
      "eer": 5232,
      "Ġtim": 5233,
      "Ġtact": 5234,
      "Ġfought": 5235,
      "isy": 5236,
      "Ġdated": 5237,
      "ĠCamb": 5238,
      "Ġbeaut": 5239,
      "Ġge": 5240,
      "ĠBost": 5241,
      "ĠHart": 5242,
      "ĠHaven": 5243,
      "ulate": 5244,
      "ĠGulf": 5245,
      "Ġrival": 5246,
      "ĠStan": 5247,
      "ieut": 5248,
      "izing": 5249,
      "ographer": 5250,
      "Ġdelay": 5251,
      "ĠAmong": 5252,
      "Ġcastle": 5253,
      "Ġstrik": 5254,
      "Ġcurrently": 5255,
      "Ġemployed": 5256,
      "clusion": 5257,
      "Ġfamilies": 5258,
      "ĠThunderbirds": 5259,
      "Ġphilos": 5260,
      "ĠCambod": 5261,
      "che": 5262,
      "crib": 5263,
      "ees": 5264,
      "heastern": 5265,
      "inity": 5266,
      "Ġouter": 5267,
      "ĠAthlet": 5268,
      "omy": 5269,
      "ads": 5270,
      "ĠLine": 5271,
      "Ġrating": 5272,
      "Ġvirt": 5273,
      "apt": 5274,
      "appe": 5275,
      "Ġtrain": 5276,
      "Ġcontained": 5277,
      "Ġarms": 5278,
      "Ġ41": 5279,
      "ansion": 5280,
      "Ġ700": 5281,
      "Ġunderground": 5282,
      "Ġends": 5283,
      "Ġsupply": 5284,
      "Ġ1939": 5285,
      "Ġprompt": 5286,
      "Ġdrive": 5287,
      "Ġtrial": 5288,
      "Ġphase": 5289,
      "Ġfacilities": 5290,
      "ĠSlam": 5291,
      "Ġfrequently": 5292,
      "Ġbudget": 5293,
      "RA": 5294,
      "lines": 5295,
      "rain": 5296,
      "Ġtree": 5297,
      "Ġsave": 5298,
      "itable": 5299,
      "Ġfict": 5300,
      "Ġbank": 5301,
      "Ġdrop": 5302,
      "Ġreform": 5303,
      "ĠSat": 5304,
      "ĠChe": 5305,
      "iring": 5306,
      "ĠFestival": 5307,
      "ĠNaz": 5308,
      "ĠGi": 5309,
      "ĠGirl": 5310,
      "ĠLes": 5311,
      "ĠOp": 5312,
      "ĠUl": 5313,
      "Ġcontact": 5314,
      "Ġcontributed": 5315,
      "Ġunus": 5316,
      "Ġspring": 5317,
      "ĠAnth": 5318,
      "Ġactors": 5319,
      "orney": 5320,
      "Ġ1942": 5321,
      "insula": 5322,
      "Ġallows": 5323,
      "Ġreflect": 5324,
      "Ġcollected": 5325,
      "ĠPho": 5326,
      "Ġfinds": 5327,
      "Ġnegative": 5328,
      "Ġexecutive": 5329,
      "rupt": 5330,
      "Ġsilver": 5331,
      "Ġclean": 5332,
      "Ġdegree": 5333,
      "ĠRevolution": 5334,
      "Ġbottom": 5335,
      "ĠOxford": 5336,
      "ĠGordon": 5337,
      "yond": 5338,
      "onent": 5339,
      "Ġsen": 5340,
      "Ġcited": 5341,
      "Ġfresh": 5342,
      "standing": 5343,
      "amic": 5344,
      "Ġbeyond": 5345,
      "olved": 5346,
      "ĠFriend": 5347,
      "ĠDen": 5348,
      "ĠNBA": 5349,
      "aved": 5350,
      "ĠEnd": 5351,
      "illo": 5352,
      "Ġshaped": 5353,
      "Ġcomputer": 5354,
      "angers": 5355,
      "ĠSha": 5356,
      "Ġopera": 5357,
      "Ġ130": 5358,
      "Ġ1918": 5359,
      "ĠUSA": 5360,
      "Ġeffective": 5361,
      "Ġentirely": 5362,
      "Ġanimals": 5363,
      "Ġimproved": 5364,
      "Ġsubsequent": 5365,
      "ĠCoast": 5366,
      "ĠStudios": 5367,
      "ĠBetween": 5368,
      "ĠTurner": 5369,
      "ĠCrazy": 5370,
      "ĠEntertainment": 5371,
      "ĠPremier": 5372,
      "ieutenant": 5373,
      "uccess": 5374,
      "Ġbow": 5375,
      "alle": 5376,
      "asc": 5377,
      "Ġmob": 5378,
      "Ġdraft": 5379,
      "Ġgain": 5380,
      "Ġgives": 5381,
      "thur": 5382,
      "ĠWork": 5383,
      "ĠObs": 5384,
      "Ġnotable": 5385,
      "Ġrecently": 5386,
      "Ġ54": 5387,
      "ansas": 5388,
      "ĠMario": 5389,
      "ropium": 5390,
      "Ġ1968": 5391,
      "Ġ1969": 5392,
      "Ġexpress": 5393,
      "Ġsimple": 5394,
      "ashion": 5395,
      "Ġextensive": 5396,
      "ĠMuslim": 5397,
      "Ġmedical": 5398,
      "ĠBoise": 5399,
      "Ġfinding": 5400,
      "ushing": 5401,
      "Ġgradually": 5402,
      "ĠToday": 5403,
      "ĠLewis": 5404,
      "Ġkilometres": 5405,
      "ĠBoston": 5406,
      "cy": 5407,
      "Ġdates": 5408,
      "Ġegg": 5409,
      "ĠCold": 5410,
      "ĠChel": 5411,
      "iments": 5412,
      "Ġstages": 5413,
      "ĠPen": 5414,
      "ĠDer": 5415,
      "ĠGard": 5416,
      "ĠJain": 5417,
      "sea": 5418,
      "Ġ57": 5419,
      "Ġfinals": 5420,
      "Ġsecondary": 5421,
      "ocked": 5422,
      "ĠLeg": 5423,
      "Ġsevere": 5424,
      "Ġ179": 5425,
      "Ġ1975": 5426,
      "Ġexpanded": 5427,
      "azz": 5428,
      "Ġserving": 5429,
      "ĠPeople": 5430,
      "Ġantimony": 5431,
      "Ġprograms": 5432,
      "ĠRussian": 5433,
      "ĠMartin": 5434,
      "cel": 5435,
      "ki": 5436,
      "rong": 5437,
      "Ġtail": 5438,
      "unte": 5439,
      "Ġcamer": 5440,
      "ishes": 5441,
      "Ġbit": 5442,
      "Ġham": 5443,
      "ĠSo": 5444,
      "stead": 5445,
      "ĠCre": 5446,
      "ĠCole": 5447,
      "ĠRail": 5448,
      "Ġitems": 5449,
      "ĠGreg": 5450,
      "ĠJes": 5451,
      "Ġcomes": 5452,
      "ĠKey": 5453,
      "Ġcomposition": 5454,
      "Ġboat": 5455,
      "weet": 5456,
      "Ġcenturies": 5457,
      "Ġ800": 5458,
      "Ġ1965": 5459,
      "Ġ1974": 5460,
      "Ġoccas": 5461,
      "ĠEvita": 5462,
      "Ġcorre": 5463,
      "ĠMagazine": 5464,
      "ĠSystem": 5465,
      "Ġoccupied": 5466,
      "ĠTurk": 5467,
      "ĠUpon": 5468,
      "ĠDemocr": 5469,
      "iations": 5470,
      "ero": 5471,
      "Ġwed": 5472,
      "unction": 5473,
      "unicip": 5474,
      "Ġmo": 5475,
      "Ġmig": 5476,
      "icc": 5477,
      "Ġdaily": 5478,
      "ĠSund": 5479,
      "Ġnaval": 5480,
      "ura": 5481,
      "urches": 5482,
      "ĠId": 5483,
      "ĠDomin": 5484,
      "Ġchair": 5485,
      "berg": 5486,
      "udd": 5487,
      "rence": 5488,
      "oys": 5489,
      "Ġfloor": 5490,
      "Ġsole": 5491,
      "Ġmush": 5492,
      "hess": 5493,
      "Ġdecades": 5494,
      "ancing": 5495,
      "ĠJuan": 5496,
      "Ġdeaths": 5497,
      "Ġcriticism": 5498,
      "Ġfarm": 5499,
      "Ġsuccessfully": 5500,
      "Ġlosses": 5501,
      "Ã¡nh": 5502,
      "ĠCommander": 5503,
      "Ġtreatment": 5504,
      "ĠKhÃ¡nh": 5505,
      "Ġslowly": 5506,
      "Ġindependence": 5507,
      "Ġcommissioned": 5508,
      "Ġexperienced": 5509,
      "Äģda": 5510,
      "Ġfictional": 5511,
      "kin": 5512,
      "ket": 5513,
      "ux": 5514,
      "inem": 5515,
      "Ġsquad": 5516,
      "Ġod": 5517,
      "Ġdial": 5518,
      "ĠAvenue": 5519,
      "aming": 5520,
      "ĠRy": 5521,
      "ĠRome": 5522,
      "ĠFox": 5523,
      "uli": 5524,
      "ĠKir": 5525,
      "ĠStone": 5526,
      "Ġrow": 5527,
      "ĠBridge": 5528,
      "anny": 5529,
      "Ġdidn": 5530,
      "Ġvisual": 5531,
      "Ġsentence": 5532,
      "Ġpersonnel": 5533,
      "Ġengaged": 5534,
      "Ġmyth": 5535,
      "ĠSongs": 5536,
      "ĠCrown": 5537,
      "ĠMacLe": 5538,
      "Ġpurchased": 5539,
      "ĠJamal": 5540,
      "Ġpolicy": 5541,
      "ĠDaniel": 5542,
      "Ġfaith": 5543,
      "ĠJurc": 5544,
      "TC": 5545,
      "hat": 5546,
      "yson": 5547,
      "Ġbass": 5548,
      "iced": 5549,
      "Ġec": 5550,
      "lywood": 5551,
      "lyss": 5552,
      "ĠBart": 5553,
      "ĠBrian": 5554,
      "ĠDo": 5555,
      "ĠLl": 5556,
      "Ġchorus": 5557,
      "Ġunp": 5558,
      "ĠAlf": 5559,
      "Ġsports": 5560,
      "Ġprefer": 5561,
      "Ġ96": 5562,
      "Ġcoal": 5563,
      "Ġcool": 5564,
      "Ġ164": 5565,
      "ĠScience": 5566,
      "Ġ1946": 5567,
      "ĠIsab": 5568,
      "Ġconcrete": 5569,
      "Ġsouthwest": 5570,
      "Ġworldwide": 5571,
      "ĠProv": 5572,
      "Ġcaptain": 5573,
      "Ġpropos": 5574,
      "Ġdeclined": 5575,
      "Ġprotagon": 5576,
      "Ġbegun": 5577,
      "Ġreasons": 5578,
      "Ġnegot": 5579,
      "borough": 5580,
      "ategory": 5581,
      "Ġbriefly": 5582,
      "Ġattract": 5583,
      "ĠTennyson": 5584,
      "Ġchalleng": 5585,
      "ĠThroughout": 5586,
      "ĠDistrict": 5587,
      "bl": 5588,
      "fort": 5589,
      "pet": 5590,
      "Ġfat": 5591,
      "Ġdrawn": 5592,
      "Ġeas": 5593,
      "Ġbeach": 5594,
      "ĠMic": 5595,
      "ĠDubl": 5596,
      "ĠNH": 5597,
      "Ġexclus": 5598,
      "ĠUN": 5599,
      "ĠKn": 5600,
      "Ġnote": 5601,
      "ĠVill": 5602,
      "perial": 5603,
      "ĠAlso": 5604,
      "Ġ73": 5605,
      "Ġ95": 5606,
      "Ġflag": 5607,
      "Ġmoves": 5608,
      "Ġnothing": 5609,
      "Ġincident": 5610,
      "Ġconcer": 5611,
      "ĠProject": 5612,
      "Ġorganiz": 5613,
      "Ġimportance": 5614,
      "Ġroads": 5615,
      "Ġelimin": 5616,
      "ĠBarb": 5617,
      "ĠSimone": 5618,
      "Ġescape": 5619,
      "ĠLiu": 5620,
      "uccessful": 5621,
      "ĠDublin": 5622,
      "iro": 5623,
      "iences": 5624,
      "rang": 5625,
      "Ġ#": 5626,
      "Ġworship": 5627,
      "Ġfur": 5628,
      "Ġhired": 5629,
      "Ġrend": 5630,
      "Ġnor": 5631,
      "ĠCy": 5632,
      "ĠCub": 5633,
      "ĠIgu": 5634,
      "ĠBru": 5635,
      "Ġstreet": 5636,
      "ĠHy": 5637,
      "ĠDun": 5638,
      "ĠLiber": 5639,
      "quake": 5640,
      "ĠKa": 5641,
      "ĠKang": 5642,
      "Ġarc": 5643,
      "ĠHead": 5644,
      "aret": 5645,
      "Ġtend": 5646,
      "Ġ61": 5647,
      "Ġfoundation": 5648,
      "Ġdecade": 5649,
      "Ġlongest": 5650,
      "Ġ1966": 5651,
      "Ġ1952": 5652,
      "Ġ1919": 5653,
      "Ġpossibility": 5654,
      "Ġarrival": 5655,
      "ĠProt": 5656,
      "Ġfavour": 5657,
      "Ġhyd": 5658,
      "chers": 5659,
      "Ġbillion": 5660,
      "Ġchapter": 5661,
      "Ġparticipated": 5662,
      "Ġcalc": 5663,
      "Ġfirm": 5664,
      "Ġenjoyed": 5665,
      "ĠArea": 5666,
      "ĠTemple": 5667,
      "Ġwitness": 5668,
      "Ġresponded": 5669,
      "ĠProduction": 5670,
      "ĠFamily": 5671,
      "Ġpaintings": 5672,
      "Ġaccompanied": 5673,
      "Ġtall": 5674,
      "Ġtheat": 5675,
      "Ġwides": 5676,
      "Ġpul": 5677,
      "Ġmist": 5678,
      "Ġlabor": 5679,
      "ĠMem": 5680,
      "Ġgas": 5681,
      "ĠBas": 5682,
      "Ġstret": 5683,
      "ayer": 5684,
      "ĠRet": 5685,
      "ĠFive": 5686,
      "ĠGA": 5687,
      "Ġheard": 5688,
      "ĠEll": 5689,
      "apes": 5690,
      "ĠUlyss": 5691,
      "iance": 5692,
      "ĠChart": 5693,
      "ĠChains": 5694,
      "ĠAli": 5695,
      "izes": 5696,
      "Ġneck": 5697,
      "Ġ97": 5698,
      "ĠMaria": 5699,
      "Ġapplic": 5700,
      "Ġsetting": 5701,
      "Ġsurre": 5702,
      "Ġdeveloping": 5703,
      "Ġ177": 5704,
      "Ġowners": 5705,
      "Ġ1936": 5706,
      "Ġguard": 5707,
      "Ġoldest": 5708,
      "Ġglob": 5709,
      "Ġagreement": 5710,
      "ĠGovernor": 5711,
      "Ġdollar": 5712,
      "Ġnormal": 5713,
      "Ġplatform": 5714,
      "Ġroughly": 5715,
      "ĠDevelopment": 5716,
      "Ġsenior": 5717,
      "ĠMacLeod": 5718,
      "ĠUlysses": 5719,
      "chest": 5720,
      "iable": 5721,
      "ls": 5722,
      "pread": 5723,
      "Ġhor": 5724,
      "ĠAer": 5725,
      "ĠCD": 5726,
      "ĠMur": 5727,
      "Ġgreen": 5728,
      "ĠBand": 5729,
      "ĠBaby": 5730,
      "ĠRon": 5731,
      "ĠFall": 5732,
      "ĠEs": 5733,
      "istan": 5734,
      "ĠInstead": 5735,
      "Ġchoice": 5736,
      "Ġremn": 5737,
      "Ġconsists": 5738,
      "Ġvert": 5739,
      "Ġacad": 5740,
      "Ġaccident": 5741,
      "Ġadding": 5742,
      "Ġpopulations": 5743,
      "Ġ1973": 5744,
      "ĠIsl": 5745,
      "ĠAdmir": 5746,
      "Ġlasted": 5747,
      "Ġtrip": 5748,
      "ĠBoard": 5749,
      "Ġcombination": 5750,
      "Ġskin": 5751,
      "Ġtechnology": 5752,
      "Ġexistence": 5753,
      "Ġregarding": 5754,
      "Ġviolence": 5755,
      "Ġpoetry": 5756,
      "Ġdominated": 5757,
      "ĠFrancisc": 5758,
      "Ġathletes": 5759,
      "ĠDougl": 5760,
      "ĠAnthony": 5761,
      "ĠTurkish": 5762,
      "iot": 5763,
      "rem": 5764,
      "Ġsn": 5765,
      "eda": 5766,
      "ĠSus": 5767,
      "Ġeth": 5768,
      "adow": 5769,
      "ĠTheatre": 5770,
      "ĠMat": 5771,
      "ĠMod": 5772,
      "iday": 5773,
      "usal": 5774,
      "Ġisol": 5775,
      "ager": 5776,
      "umpt": 5777,
      "Ġcomic": 5778,
      "antly": 5779,
      "gend": 5780,
      "Ġreserv": 5781,
      "Ġspons": 5782,
      "Ġcommittee": 5783,
      "Ġfilming": 5784,
      "Ġacres": 5785,
      "Ġapplied": 5786,
      "Ġsubmar": 5787,
      "Ġcalls": 5788,
      "Ġperforming": 5789,
      "Ġ1967": 5790,
      "ĠTeam": 5791,
      "Ġcollege": 5792,
      "Ġclubs": 5793,
      "Ġcompetitions": 5794,
      "Ġassociation": 5795,
      "Ġclosely": 5796,
      "Ġresear": 5797,
      "Ġexisting": 5798,
      "Ġunsuccessful": 5799,
      "Ġhabitat": 5800,
      "Ġweakened": 5801,
      "ĠIguan": 5802,
      "come": 5803,
      "rum": 5804,
      "Ġaer": 5805,
      "era": 5806,
      "aton": 5807,
      "isers": 5808,
      "aser": 5809,
      "ĠAston": 5810,
      "ĠMov": 5811,
      "ĠMountain": 5812,
      "Ġaltar": 5813,
      "resp": 5814,
      "Ġperhaps": 5815,
      "Ġoverl": 5816,
      "Ġneither": 5817,
      "Ġ62": 5818,
      "ĠMarl": 5819,
      "Ġundert": 5820,
      "Ġinteract": 5821,
      "Ġappeal": 5822,
      "Ġdecre": 5823,
      "Ġcapable": 5824,
      "Ġtransit": 5825,
      "Ġ110": 5826,
      "Ġdistingu": 5827,
      "Ġprovides": 5828,
      "Ġ1914": 5829,
      "Ġbattalions": 5830,
      "Ġserves": 5831,
      "Ġgreatly": 5832,
      "ĠPhill": 5833,
      "Ġdetails": 5834,
      "Ġpainting": 5835,
      "Ġarchaeological": 5836,
      "Ġderived": 5837,
      "Ġlearned": 5838,
      "Ġtells": 5839,
      "Ġreinforce": 5840,
      "Ġpilot": 5841,
      "Ġpurpose": 5842,
      "Ġadministration": 5843,
      "Ġopportunity": 5844,
      "Ġbenef": 5845,
      "Ġceremony": 5846,
      "Ġoccasionally": 5847,
      "aver": 5848,
      "ection": 5849,
      "set": 5850,
      "Ġsort": 5851,
      "Ġfellow": 5852,
      "Ġbought": 5853,
      "Ġdance": 5854,
      "Ġthing": 5855,
      "ĠAri": 5856,
      "ĠAML": 5857,
      "Ġones": 5858,
      "ĠMen": 5859,
      "ĠBishop": 5860,
      "ĠDota": 5861,
      "ĠGab": 5862,
      "Ġseat": 5863,
      "opes": 5864,
      "ichol": 5865,
      "Ġchurches": 5866,
      "Ġcontrib": 5867,
      "Ġreconst": 5868,
      "ĠAlbert": 5869,
      "Ġdescend": 5870,
      "ibbe": 5871,
      "Ġspeaking": 5872,
      "ĠAnonymous": 5873,
      "Ġ85": 5874,
      "Ġsupposed": 5875,
      "Ġsurvey": 5876,
      "pring": 5877,
      "Ġinvited": 5878,
      "Ġreceiving": 5879,
      "ĠCaribbe": 5880,
      "Ġeditor": 5881,
      "Ġheaded": 5882,
      "ĠAdv": 5883,
      "Ġstoryline": 5884,
      "Ġbasket": 5885,
      "Ġtowns": 5886,
      "Ġparalle": 5887,
      "Ġtechnique": 5888,
      "Ġsufficient": 5889,
      "Ġencounter": 5890,
      "ĠOde": 5891,
      "ĠBraz": 5892,
      "Ġinnings": 5893,
      "Ġfilled": 5894,
      "Ġvehicles": 5895,
      "Ġdissipated": 5896,
      "ĠHornung": 5897,
      "ĠChelsea": 5898,
      "ĠDouglas": 5899,
      "ĠCaribbean": 5900,
      "uate": 5901,
      "Ġut": 5902,
      "Ġton": 5903,
      "inner": 5904,
      "erc": 5905,
      "Ġsom": 5906,
      "ato": 5907,
      "Ġfashion": 5908,
      "Ġdrew": 5909,
      "amy": 5910,
      "lying": 5911,
      "ules": 5912,
      "ĠLife": 5913,
      "ĠLieutenant": 5914,
      "Ġseg": 5915,
      "ĠERA": 5916,
      "Ġplum": 5917,
      "ĠKenn": 5918,
      "ĠStew": 5919,
      "ĠStep": 5920,
      "Ġ71": 5921,
      "ĠAsia": 5922,
      "ĠLeon": 5923,
      "Ġdoor": 5924,
      "Ġgoes": 5925,
      "Ġ1945": 5926,
      "Ġ1971": 5927,
      "Ġbranch": 5928,
      "Ġreceive": 5929,
      "Ġdepict": 5930,
      "Ġanything": 5931,
      "pective": 5932,
      "Ġclassified": 5933,
      "ographic": 5934,
      "Ġviewed": 5935,
      "ĠPerry": 5936,
      "ĠGeorg": 5937,
      "ĠAbout": 5938,
      "Ġislands": 5939,
      "Ġtypical": 5940,
      "Ġsurvived": 5941,
      "ÃŃa": 5942,
      "Ġmassive": 5943,
      "Ġaccompl": 5944,
      "ĠCardinal": 5945,
      "Ġstopped": 5946,
      "ĠMaeda": 5947,
      "ructure": 5948,
      "Ġdrama": 5949,
      "Ġsymbol": 5950,
      "ĠConstantine": 5951,
      "ĠHibari": 5952,
      "ĠSummer": 5953,
      "Ġastron": 5954,
      "Ġwidespread": 5955,
      "hu": 5956,
      "pson": 5957,
      "ruli": 5958,
      "win": 5959,
      "Ġaim": 5960,
      "Ġsail": 5961,
      "Ġcrop": 5962,
      "arian": 5963,
      "ala": 5964,
      "ications": 5965,
      "ĠAge": 5966,
      "ĠMTV": 5967,
      "uting": 5968,
      "Ġwhy": 5969,
      "ĠRol": 5970,
      "ĠRod": 5971,
      "agle": 5972,
      "Ġring": 5973,
      "Ġrif": 5974,
      "Ġshared": 5975,
      "Ġtruth": 5976,
      "Ġtrying": 5977,
      "usted": 5978,
      "rait": 5979,
      "Ġ59": 5980,
      "Ġflights": 5981,
      "Ġassass": 5982,
      "Ġacid": 5983,
      "Ġquot": 5984,
      "Ġpoly": 5985,
      "Ġ1982": 5986,
      "ĠWhat": 5987,
      "Ġdistrict": 5988,
      "ĠConst": 5989,
      "ĠQedar": 5990,
      "Ġprotection": 5991,
      "Ġauthors": 5992,
      "ĠBrook": 5993,
      "ĠRomani": 5994,
      "ĠGeorgian": 5995,
      "ĠSimon": 5996,
      "ĠStev": 5997,
      "Ġhousehold": 5998,
      "Ġmissing": 5999,
      "Ġmotion": 6000,
      "ĠGolden": 6001,
      "glades": 6002,
      "Ġsynt": 6003,
      "Ġsettlers": 6004,
      "Ġacquired": 6005,
      "Ġdigital": 6006,
      "Ġsafety": 6007,
      "Ġsoutheast": 6008,
      "Ġrepeated": 6009,
      "ĠFantasy": 6010,
      "Ġconverted": 6011,
      "ibrary": 6012,
      "ati": 6013,
      "Ġha": 6014,
      "ĠTra": 6015,
      "entially": 6016,
      "ĠBond": 6017,
      "ĠBull": 6018,
      "idges": 6019,
      "utation": 6020,
      "ĠRio": 6021,
      "ĠFre": 6022,
      "ĠJud": 6023,
      "iston": 6024,
      "ĠIng": 6025,
      "essed": 6026,
      "ĠUr": 6027,
      "ips": 6028,
      "ĠStadium": 6029,
      "uble": 6030,
      "Ġroutes": 6031,
      "Ġroof": 6032,
      "Ġspacing": 6033,
      "Ġfinish": 6034,
      "Ġevac": 6035,
      "issance": 6036,
      "Ġsubstant": 6037,
      "cki": 6038,
      "Ġlocations": 6039,
      "Ġ160": 6040,
      "Ġ1976": 6041,
      "Ġdepicted": 6042,
      "Ġ1956": 6043,
      "Ġ1913": 6044,
      "Ġ1916": 6045,
      "Ġturns": 6046,
      "Ġexperiment": 6047,
      "Ġplanning": 6048,
      "Ġwatched": 6049,
      "Ġholding": 6050,
      "Ġbaseball": 6051,
      "Ġfunding": 6052,
      "Ġfocused": 6053,
      "ĠOslo": 6054,
      "ĠMoz": 6055,
      "Ġarranged": 6056,
      "ĠHaiti": 6057,
      "Ġsucceeded": 6058,
      "ĠRadio": 6059,
      "ĠFreder": 6060,
      "Ġpermanent": 6061,
      "Ġopinion": 6062,
      "ĠShortly": 6063,
      "Ġatmosphere": 6064,
      "Ġwedding": 6065,
      "VN": 6066,
      "ture": 6067,
      "tty": 6068,
      "Ġi": 6069,
      "Ġign": 6070,
      "inn": 6071,
      "Ġfuel": 6072,
      "Ġbul": 6073,
      "Ġbowl": 6074,
      "Ġindu": 6075,
      "Ġdub": 6076,
      "ĠTim": 6077,
      "ĠCa": 6078,
      "acity": 6079,
      "ĠRow": 6080,
      "ĠJones": 6081,
      "ĠOh": 6082,
      "Ġcho": 6083,
      "Ġchance": 6084,
      "Ġchannel": 6085,
      "Ġexact": 6086,
      "iege": 6087,
      "Ġresident": 6088,
      "Ġ72": 6089,
      "Ġknew": 6090,
      "Ġ81": 6091,
      "Ġdefined": 6092,
      "ifications": 6093,
      "Ġ1943": 6094,
      "Ġ175": 6095,
      "Ġproviding": 6096,
      "ĠAllied": 6097,
      "Ġiniti": 6098,
      "Ġreality": 6099,
      "bridge": 6100,
      "Ġdecline": 6101,
      "Ġcorresp": 6102,
      "idden": 6103,
      "Ġcreator": 6104,
      "Ġpenalty": 6105,
      "Ġearthquake": 6106,
      "Ġcredited": 6107,
      "hetic": 6108,
      "ĠVenus": 6109,
      "ĠIguanodon": 6110,
      "ĠBrazil": 6111,
      "Ġcorrespond": 6112,
      "GN": 6113,
      "eed": 6114,
      "ky": 6115,
      "uan": 6116,
      "Ġtied": 6117,
      "indu": 6118,
      "Ġwins": 6119,
      "Ġinner": 6120,
      "Ġmic": 6121,
      "Ġdating": 6122,
      "ĠAst": 6123,
      "stances": 6124,
      "Ġeu": 6125,
      "ĠIGN": 6126,
      "ivered": 6127,
      "ĠHindu": 6128,
      "ĠRangers": 6129,
      "ĠDream": 6130,
      "ĠGully": 6131,
      "ĠLenn": 6132,
      "agre": 6133,
      "Ġrich": 6134,
      "okes": 6135,
      "Ġjack": 6136,
      "Ġpregn": 6137,
      "ĠArts": 6138,
      "Ġ94": 6139,
      "awa": 6140,
      "Ġcharter": 6141,
      "Ġflu": 6142,
      "Ġassemb": 6143,
      "Ġgrav": 6144,
      "Ġsupplies": 6145,
      "Ġ1963": 6146,
      "Ġ112": 6147,
      "Ġdownlo": 6148,
      "Ġairport": 6149,
      "Ġheads": 6150,
      "Ġ250": 6151,
      "Ġways": 6152,
      "Ġexplos": 6153,
      "Ġdelivered": 6154,
      "Ġlaws": 6155,
      "Ġglass": 6156,
      "Ġseparated": 6157,
      "Ġrenamed": 6158,
      "ĠEverglades": 6159,
      "Ġthousands": 6160,
      "ĠSecretary": 6161,
      "ĠMorrison": 6162,
      "ĠAdditionally": 6163,
      "uilding": 6164,
      "ĠPhoen": 6165,
      "ĠStevens": 6166,
      "Å¡": 6167,
      "Ġice": 6168,
      "inated": 6169,
      "Ġwick": 6170,
      "Ġcit": 6171,
      "itan": 6172,
      "isf": 6173,
      "Ġeyes": 6174,
      "ĠBh": 6175,
      "ĠHomer": 6176,
      "ĠRun": 6177,
      "anda": 6178,
      "ĠGre": 6179,
      "ĠGram": 6180,
      "ĠLuc": 6181,
      "estone": 6182,
      "Ġrac": 6183,
      "Ġrural": 6184,
      "sey": 6185,
      "ĠUTC": 6186,
      "iece": 6187,
      "Ġrose": 6188,
      "outs": 6189,
      "Ġteaching": 6190,
      "Ġoverse": 6191,
      "Ġsecure": 6192,
      "Ġregime": 6193,
      "Ġemperor": 6194,
      "Ġ176": 6195,
      "ĠAustralians": 6196,
      "ĠCommittee": 6197,
      "Ġturning": 6198,
      "Ġcommanded": 6199,
      "Ġopposition": 6200,
      "ĠBroad": 6201,
      "ĠSimilar": 6202,
      "Ġcertified": 6203,
      "Ġinspir": 6204,
      "Ġremainder": 6205,
      "Ġindicate": 6206,
      "ĠOffice": 6207,
      "Ġconsisting": 6208,
      "ĠHollywood": 6209,
      "ĠBradford": 6210,
      "ĠArchae": 6211,
      "ĠAlexander": 6212,
      "Ġinstrument": 6213,
      "ĠColumbia": 6214,
      "Ġsplit": 6215,
      "ĠFriends": 6216,
      "ĠSunday": 6217,
      "BS": 6218,
      "RE": 6219,
      "gÃ©": 6220,
      "jillo": 6221,
      "pany": 6222,
      "rons": 6223,
      "Ġurban": 6224,
      "Ġaware": 6225,
      "Ġdog": 6226,
      "Ġdru": 6227,
      "ĠSap": 6228,
      "Ġeld": 6229,
      "ĠCle": 6230,
      "igation": 6231,
      "ĠHoly": 6232,
      "ĠPers": 6233,
      "ĠPatt": 6234,
      "ĠNative": 6235,
      "ĠGang": 6236,
      "ĠLy": 6237,
      "Ġattached": 6238,
      "Ġ77": 6239,
      "ĠMarine": 6240,
      "Ġcolour": 6241,
      "Ġnoisy": 6242,
      "Ġquite": 6243,
      "ologists": 6244,
      "Ġhighlight": 6245,
      "Ġaddress": 6246,
      "Ġ1978": 6247,
      "Ġoccurs": 6248,
      "Ġ1953": 6249,
      "Ġcourts": 6250,
      "Ġreferences": 6251,
      "Ġaffect": 6252,
      "Ġtechnical": 6253,
      "Ġvalley": 6254,
      "Ġrevolution": 6255,
      "ĠMaryland": 6256,
      "Ġeconomy": 6257,
      "Ġestablishment": 6258,
      "Ġassistance": 6259,
      "ĠMontana": 6260,
      "Ġjourney": 6261,
      "ĠCroatian": 6262,
      "ĠCritical": 6263,
      "Ġpowers": 6264,
      "ĠDirector": 6265,
      "ĠTrujillo": 6266,
      "Ġdrug": 6267,
      "lik": 6268,
      "ĪĴ": 6269,
      "Ġtable": 6270,
      "inosaur": 6271,
      "Ġpet": 6272,
      "Ġdry": 6273,
      "ilton": 6274,
      "Ġlin": 6275,
      "ela": 6276,
      "ĠBern": 6277,
      "ider": 6278,
      "ĠHan": 6279,
      "ĠDown": 6280,
      "apers": 6281,
      "ewhere": 6282,
      "ighter": 6283,
      "aked": 6284,
      "ĠâĪĴ": 6285,
      "Ġleaves": 6286,
      "ĠChronic": 6287,
      "Ġresist": 6288,
      "ĠAlan": 6289,
      "ressive": 6290,
      "Ġfinishing": 6291,
      "issipp": 6292,
      "ĠArthur": 6293,
      "Ġinterior": 6294,
      "Ġstudied": 6295,
      "Ġleads": 6296,
      "Ġdisturb": 6297,
      "Ġdistribution": 6298,
      "Ġreputation": 6299,
      "Ġsuccessor": 6300,
      "ĠRoxas": 6301,
      "Ġviews": 6302,
      "ivalent": 6303,
      "ĠMississipp": 6304,
      "Ġsurviv": 6305,
      "Ġproducing": 6306,
      "Ġmissions": 6307,
      "ĠWalter": 6308,
      "Ġdenied": 6309,
      "Ġadapted": 6310,
      "Ġshooting": 6311,
      "Ġmethods": 6312,
      "Ġportrayed": 6313,
      "ĠCharlie": 6314,
      "ĠEngineer": 6315,
      "Ġstrengthen": 6316,
      "ĠMississippi": 6317,
      "ych": 6318,
      "Ġsle": 6319,
      "Ġhall": 6320,
      "ĠSub": 6321,
      "Ġlane": 6322,
      "uration": 6323,
      "ĠBur": 6324,
      "ĠRel": 6325,
      "ĠWind": 6326,
      "andy": 6327,
      "ĠLow": 6328,
      "agues": 6329,
      "Ġrub": 6330,
      "rier": 6331,
      "ifying": 6332,
      "Ġsud": 6333,
      "ardo": 6334,
      "Ġkits": 6335,
      "ĠKil": 6336,
      "Ġrob": 6337,
      "Ġoffense": 6338,
      "Ġupd": 6339,
      "Ġprey": 6340,
      "Ġgameplay": 6341,
      "Ġentry": 6342,
      "Ġentering": 6343,
      "Ġmaintain": 6344,
      "Ġcharacteristics": 6345,
      "Ġ1915": 6346,
      "Ġcamps": 6347,
      "Ġprotected": 6348,
      "Ġcrime": 6349,
      "ĠWithin": 6350,
      "Ġpolitics": 6351,
      "Ġgetting": 6352,
      "ĠRecording": 6353,
      "ĠActivision": 6354,
      "ĠHoward": 6355,
      "Ġimmig": 6356,
      "senal": 6357,
      "ĠSamuel": 6358,
      "Ġworst": 6359,
      "Ġdismissed": 6360,
      "Ġintelligence": 6361,
      "OT": 6362,
      "SB": 6363,
      "born": 6364,
      "hi": 6365,
      "kins": 6366,
      "Ġcrown": 6367,
      "Ġpuzz": 6368,
      "ĠSnow": 6369,
      "ador": 6370,
      "ĠMul": 6371,
      "Ġstones": 6372,
      "ĠHon": 6373,
      "ĠHug": 6374,
      "ette": 6375,
      "ĠRidge": 6376,
      "osa": 6377,
      "ĠLu": 6378,
      "ĠJac": 6379,
      "ĠJay": 6380,
      "ĠEdu": 6381,
      "Ġvon": 6382,
      "Ġexerc": 6383,
      "Ġnoting": 6384,
      "ipl": 6385,
      "ells": 6386,
      "Ġattributed": 6387,
      "Ġknots": 6388,
      "Ġ98": 6389,
      "ĠMarsh": 6390,
      "Ġcharges": 6391,
      "ropri": 6392,
      "Ġcapacity": 6393,
      "Ġmonarch": 6394,
      "Ġmonument": 6395,
      "ĠPlunk": 6396,
      "Ġclasses": 6397,
      "Ġreplace": 6398,
      "Ġbasin": 6399,
      "Ġfranch": 6400,
      "Ġnovels": 6401,
      "ĠStef": 6402,
      "Ġcharts": 6403,
      "Ġintroduction": 6404,
      "Ġinterested": 6405,
      "ĠCalvert": 6406,
      "Ġholds": 6407,
      "offman": 6408,
      "Ġdiscussed": 6409,
      "Ġdollars": 6410,
      "Ġmushroom": 6411,
      "ĠIsabella": 6412,
      "ecess": 6413,
      "host": 6414,
      "town": 6415,
      "var": 6416,
      "erog": 6417,
      "Ġworth": 6418,
      "Ġcab": 6419,
      "enge": 6420,
      "Ġbaby": 6421,
      "Ġpal": 6422,
      "Ġpound": 6423,
      "Ġmort": 6424,
      "icial": 6425,
      "Ġdie": 6426,
      "ĠSound": 6427,
      "Ġlic": 6428,
      "elve": 6429,
      "ĠML": 6430,
      "ivity": 6431,
      "ĠPope": 6432,
      "ĠFar": 6433,
      "ĠDar": 6434,
      "ĠDNA": 6435,
      "ĠDanny": 6436,
      "ĠWall": 6437,
      "ĠNBC": 6438,
      "ĠJersey": 6439,
      "Ġsector": 6440,
      "rien": 6441,
      "Ġvic": 6442,
      "Ġvary": 6443,
      "Ġvision": 6444,
      "opher": 6445,
      "ameter": 6446,
      "ources": 6447,
      "Ġagent": 6448,
      "Ġoffers": 6449,
      "angerous": 6450,
      "Ġ66": 6451,
      "Ġpublisher": 6452,
      "oba": 6453,
      "ajev": 6454,
      "Ġ1948": 6455,
      "Ġdescribing": 6456,
      "Ġgeneration": 6457,
      "Ġmoder": 6458,
      "Ġ1917": 6459,
      "Ġappearing": 6460,
      "Ġmedieval": 6461,
      "Ġfields": 6462,
      "Ġstatement": 6463,
      "Ġhistoric": 6464,
      "Ġ1890": 6465,
      "Ġcoastal": 6466,
      "Ġpredecess": 6467,
      "Ġelectric": 6468,
      "Ġruled": 6469,
      "Ġrules": 6470,
      "Ġaccounts": 6471,
      "Ġyounger": 6472,
      "ĠWeekly": 6473,
      "ĠSarajev": 6474,
      "ĠLisa": 6475,
      "ĠIndustry": 6476,
      "ĠSarajevo": 6477,
      "can": 6478,
      "mans": 6479,
      "Ã¨": 6480,
      "intend": 6481,
      "erted": 6482,
      "orough": 6483,
      "Ġcaught": 6484,
      "Ġcinem": 6485,
      "itors": 6486,
      "ena": 6487,
      "Ġtomb": 6488,
      "ĠHo": 6489,
      "ĠHard": 6490,
      "ĠRay": 6491,
      "ĠDaily": 6492,
      "ĠLess": 6493,
      "iful": 6494,
      "Ġexpect": 6495,
      "Ġexception": 6496,
      "Ġplants": 6497,
      "Ġarts": 6498,
      "ube": 6499,
      "ĠVol": 6500,
      "Ġdesire": 6501,
      "ĠYe": 6502,
      "ĠYank": 6503,
      "formation": 6504,
      "attle": 6505,
      "Ġsomeone": 6506,
      "Ġapart": 6507,
      "Ġsoil": 6508,
      "Ġretire": 6509,
      "Ġ1979": 6510,
      "Ġ1951": 6511,
      "Ġbasic": 6512,
      "Ġeverything": 6513,
      "Ġdiscovery": 6514,
      "Ġdifficulty": 6515,
      "Ġrecognition": 6516,
      "Ġtribes": 6517,
      "Ġzone": 6518,
      "Ġforests": 6519,
      "Ġrarely": 6520,
      "Ġconsiderable": 6521,
      "ĠStrand": 6522,
      "ĠVictoria": 6523,
      "Ġemotional": 6524,
      "Ġninth": 6525,
      "ĠDestiny": 6526,
      "Ġarticle": 6527,
      "Ġrestaurant": 6528,
      "cribed": 6529,
      "ĠStephen": 6530,
      "ĠFrederick": 6531,
      "ĠYankovic": 6532,
      "OC": 6533,
      "cop": 6534,
      "ients": 6535,
      "vis": 6536,
      "Ġtaught": 6537,
      "orer": 6538,
      "itage": 6539,
      "Ġbond": 6540,
      "ĠTop": 6541,
      "ĠAround": 6542,
      "igades": 6543,
      "Ġstore": 6544,
      "ĠHell": 6545,
      "othes": 6546,
      "ĠPress": 6547,
      "Ġconve": 6548,
      "ĠGil": 6549,
      "ĠEarl": 6550,
      "ĠInit": 6551,
      "Ġshore": 6552,
      "Ġkings": 6553,
      "Ġcontest": 6554,
      "Ġmanner": 6555,
      "Ġdisappe": 6556,
      "Ġenl": 6557,
      "Ġshel": 6558,
      "Ġdoct": 6559,
      "Ġ1961": 6560,
      "Ġlanded": 6561,
      "Ġ1954": 6562,
      "ĠTelevision": 6563,
      "Ġevening": 6564,
      "Ġopponents": 6565,
      "Ġreplacement": 6566,
      "ĠAbb": 6567,
      "Ġinvolvement": 6568,
      "Ġpitch": 6569,
      "graded": 6570,
      "coming": 6571,
      "Ġnomination": 6572,
      "Ġspecifically": 6573,
      "Ġchapel": 6574,
      "Ġwooden": 6575,
      "ĠResear": 6576,
      "Ġcolonial": 6577,
      "ĠJoe": 6578,
      "Ġhotel": 6579,
      "ĠSomali": 6580,
      "Ġrhyth": 6581,
      "ĠClarkson": 6582,
      "Ġthirty": 6583,
      "ĠRolling": 6584,
      "ĠMozamb": 6585,
      "Ġsudden": 6586,
      "Brien": 6587,
      "aire": 6588,
      "cation": 6589,
      "nest": 6590,
      "rin": 6591,
      "ym": 6592,
      "ys": 6593,
      "Ã¶": 6594,
      "Ġfan": 6595,
      "Ġfair": 6596,
      "ingale": 6597,
      "Ġmine": 6598,
      "Ġhope": 6599,
      "ĠSanta": 6600,
      "ĠFame": 6601,
      "ĠFlow": 6602,
      "ĠDom": 6603,
      "ĠDet": 6604,
      "Ġconsequ": 6605,
      "ĠNether": 6606,
      "ĠLords": 6607,
      "ĠJif": 6608,
      "ateur": 6609,
      "Ġimpr": 6610,
      "Ġwealth": 6611,
      "Ġ69": 6612,
      "Ġsecured": 6613,
      "ĠAnton": 6614,
      "Ġ87": 6615,
      "Ġsoft": 6616,
      "Ġaccur": 6617,
      "ĠLee": 6618,
      "Ġ1937": 6619,
      "Ġbelieves": 6620,
      "ĠOrder": 6621,
      "psons": 6622,
      "Ġcommunities": 6623,
      "ĠSimpsons": 6624,
      "Ġdivine": 6625,
      "ĠRoberts": 6626,
      "aska": 6627,
      "Ġpoems": 6628,
      "ĠDuke": 6629,
      "ĠSingles": 6630,
      "ĠJerusal": 6631,
      "ĠCampb": 6632,
      "ĠSkye": 6633,
      "Ġintersection": 6634,
      "Ġcontroversy": 6635,
      "Ġpicked": 6636,
      "ĠColonel": 6637,
      "ĠCastle": 6638,
      "ĠWilde": 6639,
      "Ġrecommended": 6640,
      "Ġfungus": 6641,
      "ĠBono": 6642,
      "ĠFrancisco": 6643,
      "ĠJifna": 6644,
      "ĠJerusalem": 6645,
      "LI": 6646,
      "ao": 6647,
      "eenth": 6648,
      "nell": 6649,
      "named": 6650,
      "rations": 6651,
      "theless": 6652,
      "rets": 6653,
      "reets": 6654,
      "itled": 6655,
      "Ġfaces": 6656,
      "Ġmunicip": 6657,
      "ĠTel": 6658,
      "Ġlov": 6659,
      "ĠMaster": 6660,
      "ĠRÃ©": 6661,
      "ĠFish": 6662,
      "ĠDis": 6663,
      "Ġconte": 6664,
      "ĠWars": 6665,
      "ava": 6666,
      "Ġpros": 6667,
      "Ġvan": 6668,
      "ultane": 6669,
      "Ġreleg": 6670,
      "Ġwhereas": 6671,
      "Ġsigning": 6672,
      "Ġ1955": 6673,
      "Ġextrem": 6674,
      "ĠTrack": 6675,
      "Ġstandards": 6676,
      "Ġlegs": 6677,
      "Ġjoint": 6678,
      "ĠEliz": 6679,
      "ĠHamilton": 6680,
      "Ġappoint": 6681,
      "Ġmissed": 6682,
      "Ġlaunch": 6683,
      "Ġdrawing": 6684,
      "Ġvolunte": 6685,
      "ĠÃĹ": 6686,
      "ĠOlympics": 6687,
      "Ġscholar": 6688,
      "Ġconcerns": 6689,
      "ĠMilitary": 6690,
      "Ġleadership": 6691,
      "Ġprincipal": 6692,
      "Ġspecimens": 6693,
      "ĠAdams": 6694,
      "ĠTransport": 6695,
      "ĠIndependent": 6696,
      "ĠArgentina": 6697,
      "Ġorganizations": 6698,
      "Ġextremely": 6699,
      "30": 6700,
      "Ġsession": 6701,
      "atures": 6702,
      "Ġcard": 6703,
      "amber": 6704,
      "ĠCat": 6705,
      "ĠCop": 6706,
      "ĠCory": 6707,
      "Ġgal": 6708,
      "ĠBi": 6709,
      "Ġstream": 6710,
      "ĠHere": 6711,
      "ceived": 6712,
      "ĠRif": 6713,
      "ĠFire": 6714,
      "Ġconference": 6715,
      "ĠWi": 6716,
      "ĠWalk": 6717,
      "Ġ1900": 6718,
      "osure": 6719,
      "avia": 6720,
      "uma": 6721,
      "istol": 6722,
      "Ġexisted": 6723,
      "Ġyouth": 6724,
      "pton": 6725,
      "Ġparties": 6726,
      "Ġpartners": 6727,
      "Ġteeth": 6728,
      "Ġjazz": 6729,
      "wealth": 6730,
      "Ġspeech": 6731,
      "Ġcommit": 6732,
      "ĠMarc": 6733,
      "Ġshowing": 6734,
      "Ġdistributed": 6735,
      "Ġ1958": 6736,
      "ĠBeach": 6737,
      "ĠForces": 6738,
      "Ġapproached": 6739,
      "Ġtries": 6740,
      "ĠPrime": 6741,
      "engers": 6742,
      "Ġrelationships": 6743,
      "Äģn": 6744,
      "Ġtreaty": 6745,
      "Ġdiameter": 6746,
      "Ġthreatened": 6747,
      "Ġsurrounded": 6748,
      "Ġemerged": 6749,
      "Ġchemical": 6750,
      "ranean": 6751,
      "ĠWriting": 6752,
      "ĠBanai": 6753,
      "Ġconnection": 6754,
      "Ġeuropium": 6755,
      "ez": 6756,
      "gie": 6757,
      "ipe": 6758,
      "wise": 6759,
      "Ġwants": 6760,
      "Ġwrong": 6761,
      "edom": 6762,
      "alent": 6763,
      "Ġpack": 6764,
      "Ġpage": 6765,
      "Ġhill": 6766,
      "ĠSpring": 6767,
      "add": 6768,
      "acent": 6769,
      "ĠMot": 6770,
      "Ġstem": 6771,
      "ĠHu": 6772,
      "Ġalien": 6773,
      "ĠFel": 6774,
      "ĠWy": 6775,
      "Ġshark": 6776,
      "Ġleuk": 6777,
      "ideos": 6778,
      "Ġdisapp": 6779,
      "ĠYan": 6780,
      "Ġ79": 6781,
      "Ġproduct": 6782,
      "Ġ1949": 6783,
      "Ġ1977": 6784,
      "Ġdiscip": 6785,
      "Ġstrateg": 6786,
      "ĠCarter": 6787,
      "ĠPlot": 6788,
      "Ã©t": 6789,
      "Ġsolid": 6790,
      "Ġhistorians": 6791,
      "Ġseeing": 6792,
      "Ġcrossed": 6793,
      "Ġfacing": 6794,
      "Ġregularly": 6795,
      "Ġconduct": 6796,
      "ĠDepression": 6797,
      "Ġrailway": 6798,
      "Ġimmediate": 6799,
      "Ġfiring": 6800,
      "Ġfavorite": 6801,
      "Ġhoped": 6802,
      "Ġdocumentary": 6803,
      "Ġinstitutions": 6804,
      "Ġlbw": 6805,
      "Ġalternative": 6806,
      "Ġratings": 6807,
      "ĠNorman": 6808,
      "Ġexpedition": 6809,
      "ĠRoger": 6810,
      "Ġunusual": 6811,
      "ĠModern": 6812,
      "Ġisolated": 6813,
      "Ġsynthes": 6814,
      "ĠLennon": 6815,
      "dal": 6816,
      "inals": 6817,
      "Ġsoul": 6818,
      "union": 6819,
      "atus": 6820,
      "Ġcold": 6821,
      "Ġbes": 6822,
      "Ġinland": 6823,
      "entions": 6824,
      "owie": 6825,
      "usad": 6826,
      "ĠDA": 6827,
      "ĠWW": 6828,
      "ĠWat": 6829,
      "ĠGoffman": 6830,
      "abeth": 6831,
      "Ġadmitted": 6832,
      "oked": 6833,
      "Ġscrap": 6834,
      "Ġpartial": 6835,
      "ĠUnlike": 6836,
      "Ġregional": 6837,
      "Ġassumed": 6838,
      "Ġindig": 6839,
      "Ġsym": 6840,
      "Ġ121": 6841,
      "iversary": 6842,
      "Ġbright": 6843,
      "Ġexpansion": 6844,
      "Ġowner": 6845,
      "Ġdesignation": 6846,
      "Ġwarm": 6847,
      "Ġpointed": 6848,
      "ossible": 6849,
      "ĠHergÃ©": 6850,
      "Ġanniversary": 6851,
      "Ġreviewer": 6852,
      "Ġbreaking": 6853,
      "Ġdemol": 6854,
      "Ġstrongly": 6855,
      "Ġchanging": 6856,
      "Ġdetail": 6857,
      "Ġdestroyers": 6858,
      "Ġprotests": 6859,
      "ombat": 6860,
      "Ġtreated": 6861,
      "ÃŃvar": 6862,
      "Ġveget": 6863,
      "Ġlanguages": 6864,
      "Ġsequel": 6865,
      "ooth": 6866,
      "Ġmotor": 6867,
      "Ġliterary": 6868,
      "Ġexamples": 6869,
      "Ġbringing": 6870,
      "ĠJaneiro": 6871,
      "Ġwatershed": 6872,
      "ĠHuman": 6873,
      "ĠBolÃŃvar": 6874,
      "Ġmessage": 6875,
      "Ġduties": 6876,
      "ĠRyan": 6877,
      "Ġprotagonist": 6878,
      "ĠSaprang": 6879,
      "ĠKilmer": 6880,
      "Ġfranchise": 6881,
      "friend": 6882,
      "gas": 6883,
      "rab": 6884,
      "war": 6885,
      "Ã¼": 6886,
      "Ġtie": 6887,
      "onica": 6888,
      "Ġske": 6889,
      "orters": 6890,
      "Ġfish": 6891,
      "ingly": 6892,
      "Ġharm": 6893,
      "ĠTrib": 6894,
      "ĠTower": 6895,
      "ĠAR": 6896,
      "Ġeighth": 6897,
      "ĠIron": 6898,
      "imet": 6899,
      "Ġstadium": 6900,
      "ĠFern": 6901,
      "ĠWimb": 6902,
      "osite": 6903,
      "ĠNap": 6904,
      "Ġsections": 6905,
      "Ġorchest": 6906,
      "Ġchampion": 6907,
      "ĠKat": 6908,
      "ĠKel": 6909,
      "Ġtra": 6910,
      "ĠChief": 6911,
      "Ġintention": 6912,
      "ĠHearts": 6913,
      "Ġaged": 6914,
      "Ġoverw": 6915,
      "ibl": 6916,
      "Ġoutf": 6917,
      "Ġmeets": 6918,
      "aws": 6919,
      "Ġretreat": 6920,
      "Ġindicated": 6921,
      "Ġ1983": 6922,
      "Ġminister": 6923,
      "ledon": 6924,
      "Ġdepartment": 6925,
      "Ġairline": 6926,
      "Ġwinner": 6927,
      "Ġapproved": 6928,
      "Ġmarks": 6929,
      "Ġdetailed": 6930,
      "Ġgenre": 6931,
      "Ġcoup": 6932,
      "Ġimprove": 6933,
      "Ġcircum": 6934,
      "Ġengineering": 6935,
      "Ġcompletion": 6936,
      "Ġabsor": 6937,
      "ĠLawton": 6938,
      "Ġancest": 6939,
      "Ġattracted": 6940,
      "ĠBCE": 6941,
      "Ġspecimen": 6942,
      "Ġwearing": 6943,
      "Ġrescue": 6944,
      "ĠBurns": 6945,
      "Ġeggs": 6946,
      "Ġeasily": 6947,
      "Ġacademic": 6948,
      "ĠGeorgia": 6949,
      "ĠResearch": 6950,
      "ĠWimbledon": 6951,
      "aug": 6952,
      "eor": 6953,
      "iour": 6954,
      "know": 6955,
      "nie": 6956,
      "och": 6957,
      "Ġur": 6958,
      "Ġib": 6959,
      "ona": 6960,
      "Ġsun": 6961,
      "orous": 6962,
      "arp": 6963,
      "ician": 6964,
      "Ġhappy": 6965,
      "ĠAD": 6966,
      "ĠSquare": 6967,
      "Ġlap": 6968,
      "aments": 6969,
      "ĠMid": 6970,
      "ĠIV": 6971,
      "Ġgather": 6972,
      "ĠBul": 6973,
      "ĠBase": 6974,
      "ĠBank": 6975,
      "ĠHung": 6976,
      "ĠPerson": 6977,
      "ĠWin": 6978,
      "Ġru": 6979,
      "allow": 6980,
      "ockey": 6981,
      "ĠStation": 6982,
      "Ġtrail": 6983,
      "pping": 6984,
      "ogether": 6985,
      "oking": 6986,
      "ĠThird": 6987,
      "ensus": 6988,
      "ĠDev": 6989,
      "Ġacknow": 6990,
      "Ġmuscar": 6991,
      "Ġaccused": 6992,
      "Ġcoord": 6993,
      "Ġemp": 6994,
      "ĠGerard": 6995,
      "Ġcarbon": 6996,
      "ĠColor": 6997,
      "Ġattempting": 6998,
      "Ġeffectively": 6999,
      "istered": 7000,
      "Ġlooked": 7001,
      "Ġreading": 7002,
      "Ġsurviving": 7003,
      "Ġpractices": 7004,
      "Ġterritories": 7005,
      "ĠRichardson": 7006,
      "Ġcivilian": 7007,
      "Ġtraveled": 7008,
      "Ġfeeling": 7009,
      "Ġassistant": 7010,
      "ĠTerrit": 7011,
      "ĠJean": 7012,
      "Ġsettled": 7013,
      "Ġchallenge": 7014,
      "ĠSomalia": 7015,
      "Ġconstitution": 7016,
      "Ġencouraged": 7017,
      "Ġterminus": 7018,
      "Ġstarling": 7019,
      "ĠRhodes": 7020,
      "ĠCambridge": 7021,
      "Ġadjacent": 7022,
      "Ġcitiz": 7023,
      "ban": 7024,
      "bur": 7025,
      "body": 7026,
      "break": 7027,
      "cape": 7028,
      "mod": 7029,
      "Ġsell": 7030,
      "Ġfer": 7031,
      "Ġbal": 7032,
      "Ġmut": 7033,
      "Ġdock": 7034,
      "Ġthin": 7035,
      "ĠSa": 7036,
      "ĠSi": 7037,
      "ĠSav": 7038,
      "Ġnick": 7039,
      "amm": 7040,
      "ĠMortal": 7041,
      "thy": 7042,
      "Ġstreak": 7043,
      "ĠRos": 7044,
      "Ġraces": 7045,
      "Ġvideos": 7046,
      "illing": 7047,
      "ewhat": 7048,
      "Ġshots": 7049,
      "ĠKombat": 7050,
      "Ġcompounds": 7051,
      "Ġrecre": 7052,
      "Ġrecalled": 7053,
      "Ġpartly": 7054,
      "Ġpreced": 7055,
      "Ġevil": 7056,
      "ĠAniston": 7057,
      "Ġ91": 7058,
      "Ġ99": 7059,
      "Ġ88": 7060,
      "Ġunderw": 7061,
      "Ġinterchange": 7062,
      "Ġdecor": 7063,
      "Ġcrest": 7064,
      "Ġobtained": 7065,
      "Ġ1910": 7066,
      "Ġextreme": 7067,
      "Ġpossession": 7068,
      "Ġvisible": 7069,
      "Ġstands": 7070,
      "Ġ1909": 7071,
      "Ġconvoy": 7072,
      "ĠKeamy": 7073,
      "Ġidentity": 7074,
      "Ġ1880": 7075,
      "Ġarmor": 7076,
      "Ġseemed": 7077,
      "Ġgrey": 7078,
      "Ġpainted": 7079,
      "Ġbrothers": 7080,
      "Ġmulti": 7081,
      "Ġtowers": 7082,
      "Ġarrangement": 7083,
      "ĠFormula": 7084,
      "Ġrecovered": 7085,
      "Ġscientific": 7086,
      "ĠGarc": 7087,
      "Ġinhabit": 7088,
      "Ġcandidate": 7089,
      "ĠJournal": 7090,
      "ĠCommonwealth": 7091,
      "Ġromantic": 7092,
      "ĠAttorney": 7093,
      "Ġagricultural": 7094,
      "ĠJesus": 7095,
      "ĠAdmiral": 7096,
      "Ġsomewhat": 7097,
      "Ġinspiration": 7098,
      "bie": 7099,
      "dess": 7100,
      "Ġtone": 7101,
      "Ġtheatre": 7102,
      "Ġsan": 7103,
      "Ġocean": 7104,
      "isis": 7105,
      "Ġhits": 7106,
      "ĠTest": 7107,
      "amin": 7108,
      "Ġgall": 7109,
      "ivals": 7110,
      "thosaurus": 7111,
      "ĠPine": 7112,
      "ĠPower": 7113,
      "emia": 7114,
      "ĠWolf": 7115,
      "ĠLanc": 7116,
      "Ġhear": 7117,
      "Ġselect": 7118,
      "umps": 7119,
      "Ġproceed": 7120,
      "Ġshif": 7121,
      "Ġcloud": 7122,
      "Ġteach": 7123,
      "achus": 7124,
      "Ġspaces": 7125,
      "ĠAnc": 7126,
      "Ġrelative": 7127,
      "ĠMarines": 7128,
      "Ġverse": 7129,
      "Ġfled": 7130,
      "Ġacts": 7131,
      "ropol": 7132,
      "Ġpreserved": 7133,
      "Ġ122": 7134,
      "Ġmaint": 7135,
      "ĠJohnston": 7136,
      "Ġestate": 7137,
      "ekÄģn": 7138,
      "ĠGermans": 7139,
      "Ġimplement": 7140,
      "ĠFraser": 7141,
      "ennis": 7142,
      "Ġpassage": 7143,
      "Ġ1931": 7144,
      "Ġ1935": 7145,
      "Ġ1912": 7146,
      "ĠGuy": 7147,
      "Ġfootage": 7148,
      "ĠPoland": 7149,
      "Ġequal": 7150,
      "Ġconvin": 7151,
      "Ġcatch": 7152,
      "Ġcycle": 7153,
      "Ġsuffering": 7154,
      "ĠIslands": 7155,
      "Ġreduce": 7156,
      "Ġhosted": 7157,
      "Ġfunds": 7158,
      "Ġindustrial": 7159,
      "ĠArabic": 7160,
      "ĠEvery": 7161,
      "Ġlinked": 7162,
      "Ġspirit": 7163,
      "ĠType": 7164,
      "Ġsculpture": 7165,
      "Ġbasketball": 7166,
      "ĠPlunketts": 7167,
      "ĠCorythosaurus": 7168,
      "bishop": 7169,
      "how": 7170,
      "iary": 7171,
      "rast": 7172,
      "sewhere": 7173,
      "vious": 7174,
      "Ã¤": 7175,
      "Ġere": 7176,
      "Ġtailed": 7177,
      "Ġau": 7178,
      "Ġsessions": 7179,
      "Ġsiege": 7180,
      "Ġwars": 7181,
      "unior": 7182,
      "itals": 7183,
      "arning": 7184,
      "Ġps": 7185,
      "Ġmis": 7186,
      "Ġmap": 7187,
      "Ġhip": 7188,
      "illy": 7189,
      "sta": 7190,
      "Ġlob": 7191,
      "ĠCE": 7192,
      "ĠBos": 7193,
      "using": 7194,
      "ĠProte": 7195,
      "Ġconqu": 7196,
      "ĠNick": 7197,
      "ĠNintend": 7198,
      "ĠLoc": 7199,
      "Ġdeck": 7200,
      "ĠEc": 7201,
      "peare": 7202,
      "ĠInc": 7203,
      "Ġchronic": 7204,
      "abled": 7205,
      "Ġlegend": 7206,
      "Ġlearning": 7207,
      "Ġunf": 7208,
      "Ġdispl": 7209,
      "Ġserial": 7210,
      "ĠYour": 7211,
      "ĠRele": 7212,
      "aware": 7213,
      "Ġflo": 7214,
      "Ġincome": 7215,
      "ĠLev": 7216,
      "ificial": 7217,
      "ĠShakes": 7218,
      "Ġcontinuing": 7219,
      "Ġexpensive": 7220,
      "Ġprovince": 7221,
      "Ġattacking": 7222,
      "Ġ1932": 7223,
      "ĠAllah": 7224,
      "Ġreviewers": 7225,
      "Ġopposite": 7226,
      "Ġmedium": 7227,
      "Ġdestruction": 7228,
      "Ġdebate": 7229,
      "attered": 7230,
      "Ġtwelve": 7231,
      "ĠExp": 7232,
      "Ġcirculation": 7233,
      "Ġresponsibility": 7234,
      "Ġdefended": 7235,
      "Ġstayed": 7236,
      "Ġblocks": 7237,
      "going": 7238,
      "ĠHotel": 7239,
      "ĠFIA": 7240,
      "Ġequipped": 7241,
      "Ġconcerned": 7242,
      "Ġcontroversial": 7243,
      "Ġadults": 7244,
      "Ġcomposer": 7245,
      "Ġincorporated": 7246,
      "ĠPeninsula": 7247,
      "Ġcorrect": 7248,
      "ĠMarlborough": 7249,
      "Ġdownload": 7250,
      "erogative": 7251,
      "ĠNintendo": 7252,
      "ĠShakespeare": 7253,
      "hm": 7254,
      "ka": 7255,
      "xts": 7256,
      "ycl": 7257,
      "yles": 7258,
      "Ġic": 7259,
      "onic": 7260,
      "orious": 7261,
      "Ġble": 7262,
      "Ġbay": 7263,
      "Ġinaug": 7264,
      "Ġpric": 7265,
      "Ġpushed": 7266,
      "icts": 7267,
      "Ġnone": 7268,
      "uri": 7269,
      "Ġgone": 7270,
      "ĠPul": 7271,
      "ĠFair": 7272,
      "agas": 7273,
      "Ġritual": 7274,
      "ĠOwen": 7275,
      "Ġproport": 7276,
      "ĠKar": 7277,
      "Ġreserve": 7278,
      "Ġspin": 7279,
      "Ġsongwrit": 7280,
      "Ġpool": 7281,
      "iamond": 7282,
      "Ġdepos": 7283,
      "inking": 7284,
      "Ġpassengers": 7285,
      "Ġwilling": 7286,
      "Ġ1911": 7287,
      "Ġdriving": 7288,
      "ĠFei": 7289,
      "Ġ1921": 7290,
      "Ġ1929": 7291,
      "ĠFlight": 7292,
      "Ġlowest": 7293,
      "Ġvictims": 7294,
      "Ġpatrol": 7295,
      "ĠPalace": 7296,
      "ĠPalmy": 7297,
      "Ġpromote": 7298,
      "Ġmeetings": 7299,
      "Ġcrossing": 7300,
      "Ġaccommod": 7301,
      "Ġfalling": 7302,
      "Ġmeasures": 7303,
      "stitution": 7304,
      "Ġrebels": 7305,
      "ĠLawrence": 7306,
      "Ġobservations": 7307,
      "Ġvoted": 7308,
      "ĠPatrick": 7309,
      "Ġthrowing": 7310,
      "hews": 7311,
      "ĠStanley": 7312,
      "Ġremnants": 7313,
      "Ġparallel": 7314,
      "ĠConstruction": 7315,
      "Ġinitiative": 7316,
      "Ġkitsune": 7317,
      "ĠNetherlands": 7318,
      "burg": 7319,
      "rant": 7320,
      "ses": 7321,
      "yard": 7322,
      "zi": 7323,
      "zen": 7324,
      "inje": 7325,
      "Ġsight": 7326,
      "Ġcraft": 7327,
      "itated": 7328,
      "Ġinte": 7329,
      "anning": 7330,
      "Ġhat": 7331,
      "ĠSweet": 7332,
      "ĠChen": 7333,
      "ĠCook": 7334,
      "olay": 7335,
      "ĠBert": 7336,
      "iminal": 7337,
      "ĠHospital": 7338,
      "uscript": 7339,
      "emeter": 7340,
      "agn": 7341,
      "Ġcomments": 7342,
      "Ġexha": 7343,
      "Ġplain": 7344,
      "oca": 7345,
      "ĠStory": 7346,
      "ĠStock": 7347,
      "ogen": 7348,
      "onder": 7349,
      "arked": 7350,
      "formed": 7351,
      "Ġ82": 7352,
      "Ġflat": 7353,
      "Ġacclaim": 7354,
      "Ġretained": 7355,
      "Ġdefences": 7356,
      "Ġgross": 7357,
      "Ġ162": 7358,
      "Ġ1962": 7359,
      "Ġreturns": 7360,
      "Ġmusicians": 7361,
      "Ġ1959": 7362,
      "Ġgovernor": 7363,
      "Ġ1938": 7364,
      "Ġclassical": 7365,
      "ĠGeoff": 7366,
      "ĠOrgan": 7367,
      "Ġinvolving": 7368,
      "Ġrepresenting": 7369,
      "Ġpatron": 7370,
      "Ġequivalent": 7371,
      "Ġgoddess": 7372,
      "Ġpraise": 7373,
      "ĠAtlanta": 7374,
      "Ġwatch": 7375,
      "Ġvillages": 7376,
      "Ġpitcher": 7377,
      "Ġdifficulties": 7378,
      "Ġsuperior": 7379,
      "Ġraise": 7380,
      "ĠPlayer": 7381,
      "Ġbiography": 7382,
      "ĠQueens": 7383,
      "Ġintensified": 7384,
      "Ġobjects": 7385,
      "ĠEmperor": 7386,
      "Ġabsol": 7387,
      "Ġunderstand": 7388,
      "ĠPitman": 7389,
      "Ġcarrying": 7390,
      "Ġvessels": 7391,
      "ĠKorean": 7392,
      "Ġfixed": 7393,
      "Ġbatsman": 7394,
      "ĠGuardian": 7395,
      "ĠCambodia": 7396,
      "Ġoccasions": 7397,
      "Ġhydro": 7398,
      "Ġglobal": 7399,
      "Ġethn": 7400,
      "ĠStefani": 7401,
      "ĠElizabeth": 7402,
      "ĠGarcÃŃa": 7403,
      "emetery": 7404,
      "de": 7405,
      "uct": 7406,
      "wich": 7407,
      "err": 7408,
      "Ġsam": 7409,
      "Ġsulf": 7410,
      "Ġow": 7411,
      "Ġcry": 7412,
      "Ġfal": 7413,
      "Ġfine": 7414,
      "Ġmart": 7415,
      "Ġdivers": 7416,
      "entures": 7417,
      "ĠCru": 7418,
      "Ġonline": 7419,
      "Ġgend": 7420,
      "terbury": 7421,
      "ĠBass": 7422,
      "ĠHun": 7423,
      "Ġalleg": 7424,
      "Ġansw": 7425,
      "ĠLab": 7426,
      "ĠJoy": 7427,
      "Ġsees": 7428,
      "Ġray": 7429,
      "ĠOur": 7430,
      "Ġprohib": 7431,
      "Ġorn": 7432,
      "Ġexchange": 7433,
      "ĠChannel": 7434,
      "Ġresources": 7435,
      "Ġju": 7436,
      "Ġcommitted": 7437,
      "Ġ74": 7438,
      "Ġsimultane": 7439,
      "ĠMega": 7440,
      "ĠCanterbury": 7441,
      "Ġperiods": 7442,
      "ĠSpace": 7443,
      "Ġcovers": 7444,
      "Ġdefeating": 7445,
      "pecies": 7446,
      "Ġinfluences": 7447,
      "ĠDesign": 7448,
      "Ġdivisions": 7449,
      "Ġlimit": 7450,
      "Ġneeds": 7451,
      "Ġaccompany": 7452,
      "Ġmoral": 7453,
      "Ġcollaps": 7454,
      "Ġrenew": 7455,
      "Ġreveals": 7456,
      "ĠMediter": 7457,
      "Ġescort": 7458,
      "ĠEnterprise": 7459,
      "Ġpurchase": 7460,
      "Ġnarrative": 7461,
      "Ġvoiced": 7462,
      "Ġbehaviour": 7463,
      "ĠPalestine": 7464,
      "ĠAthletic": 7465,
      "Ġcamera": 7466,
      "Ġpreferred": 7467,
      "Ġconcerts": 7468,
      "ĠProtest": 7469,
      "ĠAerith": 7470,
      "ĠPhillies": 7471,
      "Ġsurvivors": 7472,
      "Ġcontext": 7473,
      "ĠMediterranean": 7474,
      "fare": 7475,
      "graf": 7476,
      "mine": 7477,
      "rig": 7478,
      "uilt": 7479,
      "Ġtick": 7480,
      "rel": 7481,
      "Ġcul": 7482,
      "Ġfold": 7483,
      "esc": 7484,
      "esi": 7485,
      "ĠCorn": 7486,
      "ĠMu": 7487,
      "ĠMother": 7488,
      "ĠBark": 7489,
      "Ġash": 7490,
      "ĠRaff": 7491,
      "ĠRugby": 7492,
      "ĠFurt": 7493,
      "ĠDC": 7494,
      "ĠDi": 7495,
      "ĠWicc": 7496,
      "ĠNow": 7497,
      "ĠLate": 7498,
      "ĠLink": 7499,
      "ĠLabor": 7500,
      "Ġrugby": 7501,
      "resents": 7502,
      "apped": 7503,
      "ophy": 7504,
      "atech": 7505,
      "Ġexit": 7506,
      "uda": 7507,
      "ĠStop": 7508,
      "elli": 7509,
      "ureau": 7510,
      "Ġclo": 7511,
      "Ġagree": 7512,
      "Ġfeather": 7513,
      "Ġproducts": 7514,
      "Ġformally": 7515,
      "Ġfollowers": 7516,
      "Ġincom": 7517,
      "Ġ06": 7518,
      "Ġ07": 7519,
      "Ġ161": 7520,
      "annah": 7521,
      "Ġoperating": 7522,
      "raph": 7523,
      "Ġrepresents": 7524,
      "ooking": 7525,
      "ahl": 7526,
      "Ġconsiders": 7527,
      "ĠUSD": 7528,
      "Ġrefers": 7529,
      "Ġcovering": 7530,
      "Ġelse": 7531,
      "Ġelabor": 7532,
      "Ġcriticised": 7533,
      "Ġdetect": 7534,
      "Ġdoesn": 7535,
      "Ġsteel": 7536,
      "Ġcloser": 7537,
      "ĠChampionships": 7538,
      "ĠMarkgraf": 7539,
      "Ġtribut": 7540,
      "Ġfeelings": 7541,
      "Ġvisitors": 7542,
      "Ġabsence": 7543,
      "Ġnormally": 7544,
      "Ġhundreds": 7545,
      "Ġpupils": 7546,
      "ĠSpecial": 7547,
      "Ġlegislation": 7548,
      "Ġdeployed": 7549,
      "Ġarrested": 7550,
      "Ġdialogue": 7551,
      "Ġproposal": 7552,
      "ĠGrammy": 7553,
      "Ġrhythm": 7554,
      "Ġmunicipal": 7555,
      "ĠCathedral": 7556,
      "ĠColorado": 7557,
      "ĠRaffles": 7558,
      "ĠFurtado": 7559,
      "after": 7560,
      "eke": 7561,
      "math": 7562,
      "organ": 7563,
      "isms": 7564,
      "esse": 7565,
      "Ġbone": 7566,
      "Ġbrick": 7567,
      "Ġpure": 7568,
      "Ġdim": 7569,
      "Ġdens": 7570,
      "Ġdiet": 7571,
      "Ġet": 7572,
      "ĠCab": 7573,
      "urday": 7574,
      "ĠMel": 7575,
      "iders": 7576,
      "Ġstable": 7577,
      "otic": 7578,
      "ĠPA": 7579,
      "ĠDark": 7580,
      "ĠGib": 7581,
      "agu": 7582,
      "Ġdeem": 7583,
      "ĠUsta": 7584,
      "Ġreconna": 7585,
      "ĠAlong": 7586,
      "Ġmanuscript": 7587,
      "ĠReal": 7588,
      "Ġfeed": 7589,
      "Ġ93": 7590,
      "Ġprerogative": 7591,
      "Ġforming": 7592,
      "Ġamino": 7593,
      "Ġsurpr": 7594,
      "Ġ166": 7595,
      "ĠSholay": 7596,
      "Ġinfrast": 7597,
      "ullen": 7598,
      "ĠTechn": 7599,
      "Ġextent": 7600,
      "Ġclassic": 7601,
      "Ġtrading": 7602,
      "Ġskull": 7603,
      "Ã¡r": 7604,
      "Ġhyp": 7605,
      "Ġbiographer": 7606,
      "Ġpoorly": 7607,
      "Ġstationed": 7608,
      "ĠImperial": 7609,
      "Ġdisplays": 7610,
      "ĠPrior": 7611,
      "Ġensure": 7612,
      "Ġmoments": 7613,
      "Ġoption": 7614,
      "Ġinternal": 7615,
      "Ġdrums": 7616,
      "ĠKrak": 7617,
      "Ġinterpret": 7618,
      "ĠSaturday": 7619,
      "ĠDominican": 7620,
      "ĠNHL": 7621,
      "Ġsubmarine": 7622,
      "Ġresearchers": 7623,
      "Ġreconstruction": 7624,
      "Ġconvection": 7625,
      "ĠFernand": 7626,
      "Ġmuscaria": 7627,
      "ĠUstaÅ¡": 7628,
      "Ġreconnaissance": 7629,
      "eper": 7630,
      "ias": 7631,
      "vention": 7632,
      "Ġsunk": 7633,
      "Ġswe": 7634,
      "Ġsaves": 7635,
      "Ġwings": 7636,
      "Ġcreek": 7637,
      "Ġbat": 7638,
      "Ġblow": 7639,
      "ĠTig": 7640,
      "ĠTreat": 7641,
      "ĠSher": 7642,
      "state": 7643,
      "Ġlose": 7644,
      "Ġlists": 7645,
      "ĠCape": 7646,
      "ĠBed": 7647,
      "Ġstreets": 7648,
      "ĠHou": 7649,
      "ĠHob": 7650,
      "ĠFree": 7651,
      "ĠDur": 7652,
      "eman": 7653,
      "Ġorbit": 7654,
      "ĠKit": 7655,
      "Ġintense": 7656,
      "Ġ89": 7657,
      "ĠMarg": 7658,
      "Ġverte": 7659,
      "Ġappropri": 7660,
      "Ġ05": 7661,
      "Ġentitled": 7662,
      "Ġtransition": 7663,
      "Ġuseful": 7664,
      "ĠBlood": 7665,
      "Ġmodified": 7666,
      "Ġannually": 7667,
      "Ġdriven": 7668,
      "Ġextension": 7669,
      "Ġconstruct": 7670,
      "Ġinfluential": 7671,
      "encies": 7672,
      "Ġposted": 7673,
      "ĠMaggie": 7674,
      "ĠRecord": 7675,
      "ĠMexican": 7676,
      "ĠMedia": 7677,
      "Ġinjuries": 7678,
      "Ġwithdrew": 7679,
      "Ġmemory": 7680,
      "Ġcruiser": 7681,
      "ĠFIFA": 7682,
      "Ġunderstanding": 7683,
      "Ġdramatic": 7684,
      "Ġpurposes": 7685,
      "iques": 7686,
      "Ġdynasty": 7687,
      "ĠDAG": 7688,
      "Ġoverwhel": 7689,
      "CA": 7690,
      "ds": 7691,
      "rine": 7692,
      "sch": 7693,
      "vements": 7694,
      "vati": 7695,
      "Åį": 7696,
      "Ġtight": 7697,
      "Ġtank": 7698,
      "Ġtests": 7699,
      "inet": 7700,
      "onomy": 7701,
      "real": 7702,
      "rell": 7703,
      "Ġsaved": 7704,
      "aten": 7705,
      "ora": 7706,
      "oral": 7707,
      "Ġchess": 7708,
      "icop": 7709,
      "Ġdinosaur": 7710,
      "Ġhang": 7711,
      "lete": 7712,
      "Ġrepr": 7713,
      "Ġloy": 7714,
      "ĠCult": 7715,
      "ĠMah": 7716,
      "ĠBron": 7717,
      "ĠHud": 7718,
      "ĠHok": 7719,
      "ĠHind": 7720,
      "ĠFront": 7721,
      "Ġcong": 7722,
      "uls": 7723,
      "ĠNichol": 7724,
      "ĠJenn": 7725,
      "Ġrated": 7726,
      "Ġrates": 7727,
      "Ġridge": 7728,
      "rif": 7729,
      "Ġvac": 7730,
      "Ġorb": 7731,
      "Ġchoir": 7732,
      "Ġexcess": 7733,
      "Ġplane": 7734,
      "pty": 7735,
      "ĠVII": 7736,
      "Ġclock": 7737,
      "Ġago": 7738,
      "Ġotherwise": 7739,
      "Ġspoke": 7740,
      "Ġ63": 7741,
      "mann": 7742,
      "Ġ900": 7743,
      "Ġwritings": 7744,
      "Ġactual": 7745,
      "Ġammun": 7746,
      "Ġseverely": 7747,
      "Ġoriginated": 7748,
      "Ġshipping": 7749,
      "Ġinstalled": 7750,
      "Ġgenerated": 7751,
      "Ġexposure": 7752,
      "Ġhelicop": 7753,
      "Ġrestrict": 7754,
      "Ġ1928": 7755,
      "Ġengines": 7756,
      "Ġdemand": 7757,
      "Ġsuggesting": 7758,
      "Ġframe": 7759,
      "ĠParvati": 7760,
      "Ġfactors": 7761,
      "Ġinterests": 7762,
      "Ġwatching": 7763,
      "Ġreaders": 7764,
      "ĠTownship": 7765,
      "restling": 7766,
      "Ġcrosses": 7767,
      "Ġburned": 7768,
      "Ġinformed": 7769,
      "Ġkingdom": 7770,
      "Ġmaterials": 7771,
      "ĠIsraeli": 7772,
      "Ġsatisf": 7773,
      "ĠNorway": 7774,
      "Ġessential": 7775,
      "Ġsubspecies": 7776,
      "Ġapparently": 7777,
      "Ġjournalist": 7778,
      "Ġdoubt": 7779,
      "ĠMassachus": 7780,
      "Ġhappened": 7781,
      "Ġpanel": 7782,
      "Ġpicture": 7783,
      "Ġcustom": 7784,
      "Ġchairman": 7785,
      "Ġjackrab": 7786,
      "ĠEducation": 7787,
      "ĠRÃ©union": 7788,
      "Ġcircumstances": 7789,
      "ĠBarker": 7790,
      "Ġammunition": 7791,
      "ĠMassachusetts": 7792,
      "gency": 7793,
      "mn": 7794,
      "ni": 7795,
      "rants": 7796,
      "á»": 7797,
      "Ġille": 7798,
      "heera": 7799,
      "Ġcart": 7800,
      "Ġciting": 7801,
      "Ġfestival": 7802,
      "ĠTon": 7803,
      "Ġready": 7804,
      "ĠAld": 7805,
      "ilst": 7806,
      "ĠSports": 7807,
      "ĠCec": 7808,
      "acle": 7809,
      "ĠHamp": 7810,
      "ĠHaving": 7811,
      "utz": 7812,
      "ĠFound": 7813,
      "ĠGary": 7814,
      "ĠGwen": 7815,
      "aga": 7816,
      "ĠEaton": 7817,
      "ĠInt": 7818,
      "ateau": 7819,
      "ables": 7820,
      "ĠKann": 7821,
      "oven": 7822,
      "raham": 7823,
      "Ġclimate": 7824,
      "Ġrecur": 7825,
      "Ġpartially": 7826,
      "Ġdisaster": 7827,
      "Ġearn": 7828,
      "Ġrelie": 7829,
      "Ġcancer": 7830,
      "Ġmovements": 7831,
      "Ġeleven": 7832,
      "ĠBranch": 7833,
      "Ġbelt": 7834,
      "Ġoperate": 7835,
      "Ġgenerals": 7836,
      "Ġimpossible": 7837,
      "Ġcarved": 7838,
      "Ġlatex": 7839,
      "ĠGuide": 7840,
      "Ġlisten": 7841,
      "urricanes": 7842,
      "Ġ1927": 7843,
      "Ġcauses": 7844,
      "ĠPeters": 7845,
      "Ġparish": 7846,
      "ĠMinistry": 7847,
      "Ġvictories": 7848,
      "ĠXe": 7849,
      "ĠFederal": 7850,
      "ĠRichmond": 7851,
      "Ġmixture": 7852,
      "Ġsurvive": 7853,
      "ĠCorpor": 7854,
      "Ġburning": 7855,
      "ĠWilson": 7856,
      "Ġtransportation": 7857,
      "ĠPortugal": 7858,
      "Ġlayer": 7859,
      "Ġbombard": 7860,
      "Ġadministr": 7861,
      "Ġshells": 7862,
      "Ġinstruments": 7863,
      "Ġstarlings": 7864,
      "Ġbehavior": 7865,
      "ĠHistoric": 7866,
      "Ġdeparture": 7867,
      "ĠRAAF": 7868,
      "ĠSwedish": 7869,
      "tavÄģda": 7870,
      "Ġsubstantial": 7871,
      "Ġoverseas": 7872,
      "ĠPatty": 7873,
      "Ġresistance": 7874,
      "ekÄģntavÄģda": 7875,
      "ĠUstaÅ¡e": 7876,
      "ĠKannada": 7877,
      "OK": 7878,
      "life": 7879,
      "pes": 7880,
      "pent": 7881,
      "yria": 7882,
      "zac": 7883,
      "Ê»": 7884,
      "Ġsquadron": 7885,
      "Ġwine": 7886,
      "Ġdangerous": 7887,
      "lets": 7888,
      "iling": 7889,
      "ĠSis": 7890,
      "Ġlover": 7891,
      "Ġliber": 7892,
      "ĠCBS": 7893,
      "Ġwasn": 7894,
      "Ġbearing": 7895,
      "urse": 7896,
      "ĠMand": 7897,
      "ĠMidge": 7898,
      "ĠMasters": 7899,
      "ĠMÃ¡r": 7900,
      "ĠBall": 7901,
      "ĠBaker": 7902,
      "ĠBureau": 7903,
      "ithic": 7904,
      "ĠPass": 7905,
      "ĠPict": 7906,
      "chang": 7907,
      "andoba": 7908,
      "osl": 7909,
      "osm": 7910,
      "ĠElect": 7911,
      "ĠEagle": 7912,
      "Ġshut": 7913,
      "aste": 7914,
      "teenth": 7915,
      "Ġunlike": 7916,
      "Ġrooms": 7917,
      "Ġabund": 7918,
      "Ġresigned": 7919,
      "ricted": 7920,
      "Ġafterwards": 7921,
      "Ġspores": 7922,
      "ĠYug": 7923,
      "Ġspend": 7924,
      "Ġcommem": 7925,
      "Ġconsc": 7926,
      "Ġamateur": 7927,
      "Ġsupporters": 7928,
      "Ġinstance": 7929,
      "Ġmusician": 7930,
      "Ġmodels": 7931,
      "Ġ1933": 7932,
      "Ġrestored": 7933,
      "Ġmarry": 7934,
      "Ġlisting": 7935,
      "Ġphr": 7936,
      "quez": 7937,
      "Ġtemples": 7938,
      "Ġcompete": 7939,
      "ĠSimpson": 7940,
      "ĠPolice": 7941,
      "Ġinteresting": 7942,
      "Ġlooks": 7943,
      "Ġtechniques": 7944,
      "Ġelectronic": 7945,
      "Ġ1860": 7946,
      "Ġsequences": 7947,
      "Ġengineers": 7948,
      "Ġthinking": 7949,
      "ĠKhandoba": 7950,
      "Ġtribute": 7951,
      "Ġloan": 7952,
      "Ġpersu": 7953,
      "Ġestablishing": 7954,
      "Ġdocuments": 7955,
      "forced": 7956,
      "itzer": 7957,
      "ĠVeronica": 7958,
      "ĠHowe": 7959,
      "rorist": 7960,
      "ASA": 7961,
      "Ġopportunities": 7962,
      "Ġstruggle": 7963,
      "Ġwindows": 7964,
      "Ġpremiered": 7965,
      "Ġbeautiful": 7966,
      "ĠStewart": 7967,
      "ĠYanke": 7968,
      "ĠMÃ¡rquez": 7969,
      "ĠYugosl": 7970,
      "DH": 7971,
      "Hg": 7972,
      "MO": 7973,
      "nal": 7974,
      "pus": 7975,
      "sp": 7976,
      "uv": 7977,
      "western": 7978,
      "Ġtip": 7979,
      "Ġsale": 7980,
      "Ġfram": 7981,
      "ĠinHg": 7982,
      "Ġpale": 7983,
      "Ġmode": 7984,
      "roit": 7985,
      "leph": 7986,
      "ĠTam": 7987,
      "entional": 7988,
      "ĠAP": 7989,
      "ĠSoon": 7990,
      "omura": 7991,
      "ĠThen": 7992,
      "Ġgard": 7993,
      "Ġforcing": 7994,
      "ĠBath": 7995,
      "otton": 7996,
      "ĠRoc": 7997,
      "ĠFRE": 7998,
      "ĠWright": 7999,
      "osis": 8000,
      "ĠNad": 8001,
      "ĠNiel": 8002,
      "ĠLith": 8003,
      "ĠLast": 8004,
      "Ġheat": 8005,
      "ĠJr": 8006,
      "Ġprove": 8007,
      "ĠâĤ": 8008,
      "Ġnotably": 8009,
      "iped": 8010,
      "ishment": 8011,
      "Ġunion": 8012,
      "Ġrecru": 8013,
      "ryce": 8014,
      "Ġoutl": 8015,
      "rene": 8016,
      "Ġ68": 8017,
      "Ġremember": 8018,
      "Ġinteraction": 8019,
      "Ġsubst": 8020,
      "roscop": 8021,
      "Ġminimum": 8022,
      "Ġartwork": 8023,
      "Ġartificial": 8024,
      "ĠWho": 8025,
      "Ġdesigns": 8026,
      "Ġoffices": 8027,
      "Ġ1957": 8028,
      "Ġadvis": 8029,
      "Ġadventure": 8030,
      "Ġstorms": 8031,
      "onto": 8032,
      "Ġcriminal": 8033,
      "Ġsituated": 8034,
      "Ġelsewhere": 8035,
      "Ġdivor": 8036,
      "Ġpredomin": 8037,
      "Ġrecognised": 8038,
      "Ġachieve": 8039,
      "ĠPhilip": 8040,
      "Ġmerch": 8041,
      "ĠToronto": 8042,
      "Ġproperties": 8043,
      "Ġmemorial": 8044,
      "Ġcoins": 8045,
      "Ġexperiences": 8046,
      "ĠJustice": 8047,
      "Ġweapon": 8048,
      "ĠRobin": 8049,
      "Ġspiritual": 8050,
      "ĠMiller": 8051,
      "Ġthousand": 8052,
      "Ġneighbor": 8053,
      "Ġvessel": 8054,
      "ĠGirls": 8055,
      "ĠJurchen": 8056,
      "ĠPhoenix": 8057,
      "ĠMulder": 8058,
      "Ġretirement": 8059,
      "ĠMozambique": 8060,
      "ĠDetroit": 8061,
      "LIMO": 8062,
      "Ġacknowled": 8063,
      "atechism": 8064,
      "ĠFRELIMO": 8065,
      "cru": 8066,
      "iar": 8067,
      "ÅĽ": 8068,
      "áĥ": 8069,
      "Ġáĥ": 8070,
      "Ġtiss": 8071,
      "Ġtanks": 8072,
      "heme": 8073,
      "Ġsons": 8074,
      "orrow": 8075,
      "Ġfountain": 8076,
      "Ġmask": 8077,
      "icide": 8078,
      "ĠTs": 8079,
      "Ġrect": 8080,
      "ĠSb": 8081,
      "ĠSans": 8082,
      "omatic": 8083,
      "ĠCob": 8084,
      "ĠCelt": 8085,
      "ĠIra": 8086,
      "Ġgiant": 8087,
      "ĠBell": 8088,
      "ĠBang": 8089,
      "ĠBenn": 8090,
      "ĠPoint": 8091,
      "ĠRest": 8092,
      "ĠRaj": 8093,
      "Ġconj": 8094,
      "ĠNetwork": 8095,
      "Ġselection": 8096,
      "Ġvast": 8097,
      "aka": 8098,
      "Ġshop": 8099,
      "ĠKim": 8100,
      "ĠKansas": 8101,
      "order": 8102,
      "ears": 8103,
      "Ġtrained": 8104,
      "ĠVice": 8105,
      "Ġresign": 8106,
      "Ġagents": 8107,
      "Ġattrib": 8108,
      "Ġ67": 8109,
      "ĠSee": 8110,
      "ĠSeason": 8111,
      "ĠDeath": 8112,
      "Ġformat": 8113,
      "Ġfounder": 8114,
      "atherine": 8115,
      "ĠScully": 8116,
      "Ġobst": 8117,
      "Ġdepicts": 8118,
      "Ġinstru": 8119,
      "Ġcounties": 8120,
      "Ġcharacterized": 8121,
      "ĠProg": 8122,
      "pended": 8123,
      "Ġengage": 8124,
      "ĠManagement": 8125,
      "Ġstarred": 8126,
      "Ġformerly": 8127,
      "Ġwestward": 8128,
      "ĠMinor": 8129,
      "ĠPerfect": 8130,
      "Ġfrig": 8131,
      "Ġstatistics": 8132,
      "ĠBarry": 8133,
      "Ġprogramme": 8134,
      "Ġradiation": 8135,
      "ĠKevin": 8136,
      "Ġ1850": 8137,
      "Ġfallen": 8138,
      "Ġmeasured": 8139,
      "Ġcosts": 8140,
      "Ġburial": 8141,
      "Ġcopy": 8142,
      "Ġobjective": 8143,
      "Ġnetworks": 8144,
      "ĠMoore": 8145,
      "ĠRussia": 8146,
      "Ġcleared": 8147,
      "Ġcheck": 8148,
      "Ġbiggest": 8149,
      "Ġdepending": 8150,
      "Ġphotograph": 8151,
      "Ġinstitution": 8152,
      "Ġvehicle": 8153,
      "Ġremarked": 8154,
      "Ġexcavation": 8155,
      "Ġholiday": 8156,
      "ĠJourney": 8157,
      "ĠAlbums": 8158,
      "Ġdelayed": 8159,
      "ĠColeman": 8160,
      "umption": 8161,
      "ĠBulls": 8162,
      "ĠGilbert": 8163,
      "ĠWiÅĽ": 8164,
      "owiecki": 8165,
      "Ġconvinced": 8166,
      "Ġpsych": 8167,
      "Ġinfrastructure": 8168,
      "ĠHudson": 8169,
      "niowiecki": 8170,
      "ĠWiÅĽniowiecki": 8171,
      "hist": 8172,
      "mel": 8173,
      "nce": 8174,
      "oe": 8175,
      "uable": 8176,
      "Äĩ": 8177,
      "heim": 8178,
      "hered": 8179,
      "eratops": 8180,
      "Ġsed": 8181,
      "Ġmamm": 8182,
      "Ġdream": 8183,
      "Ġhorn": 8184,
      "ĠSid": 8185,
      "ĠSuch": 8186,
      "ĠBudd": 8187,
      "Ġstyles": 8188,
      "otal": 8189,
      "ĠGate": 8190,
      "Ġrum": 8191
    },
    "merges": [
      [
        "Ġ",
        "t"
      ],
      [
        "h",
        "e"
      ],
      [
        "Ġ",
        "a"
      ],
      [
        "i",
        "n"
      ],
      [
        "Ġt",
        "he"
      ],
      [
        "e",
        "r"
      ],
      [
        "o",
        "n"
      ],
      [
        "Ġ",
        ","
      ],
      [
        "r",
        "e"
      ],
      [
        "Ġ",
        "s"
      ],
      [
        "Ġ",
        "o"
      ],
      [
        "Ġ",
        "w"
      ],
      [
        "e",
        "d"
      ],
      [
        "u",
        "n"
      ],
      [
        "Ġ",
        "."
      ],
      [
        "a",
        "t"
      ],
      [
        "n",
        "d"
      ],
      [
        "o",
        "r"
      ],
      [
        "Ġ",
        "c"
      ],
      [
        "i",
        "t"
      ],
      [
        "Ġ",
        "f"
      ],
      [
        "e",
        "n"
      ],
      [
        "i",
        "s"
      ],
      [
        "Ġo",
        "f"
      ],
      [
        "e",
        "s"
      ],
      [
        "Ġ",
        "b"
      ],
      [
        "Ġ",
        "in"
      ],
      [
        "a",
        "r"
      ],
      [
        "un",
        "k"
      ],
      [
        "a",
        "n"
      ],
      [
        "Ġ",
        "<"
      ],
      [
        "a",
        "l"
      ],
      [
        "Ġa",
        "nd"
      ],
      [
        "Ġ",
        "p"
      ],
      [
        "in",
        "g"
      ],
      [
        "a",
        "s"
      ],
      [
        "Ġt",
        "o"
      ],
      [
        "Ġ",
        "m"
      ],
      [
        "r",
        "o"
      ],
      [
        "i",
        "c"
      ],
      [
        "Ġ",
        "d"
      ],
      [
        "Ġ",
        "h"
      ],
      [
        "Ġ",
        "Ċ"
      ],
      [
        "i",
        "on"
      ],
      [
        "l",
        "e"
      ],
      [
        "Ġ",
        "T"
      ],
      [
        "Ġ",
        "="
      ],
      [
        "Ġ",
        "re"
      ],
      [
        "Ġ",
        "\""
      ],
      [
        "Ġt",
        "h"
      ],
      [
        "en",
        "t"
      ],
      [
        "o",
        "u"
      ],
      [
        "Ġ",
        "A"
      ],
      [
        "Ġ",
        "1"
      ],
      [
        "i",
        "l"
      ],
      [
        "Ġ",
        "S"
      ],
      [
        "s",
        "t"
      ],
      [
        "Ġ",
        "l"
      ],
      [
        "o",
        "m"
      ],
      [
        "Ġ",
        "e"
      ],
      [
        "Ġ",
        "n"
      ],
      [
        "Ġ",
        "@"
      ],
      [
        "a",
        "m"
      ],
      [
        "Ġ",
        "C"
      ],
      [
        "e",
        "l"
      ],
      [
        "a",
        "d"
      ],
      [
        "Ġw",
        "as"
      ],
      [
        "a",
        "c"
      ],
      [
        "ĠT",
        "he"
      ],
      [
        "Ġ",
        "on"
      ],
      [
        "Ġb",
        "e"
      ],
      [
        "u",
        "r"
      ],
      [
        "l",
        "y"
      ],
      [
        "Ġ",
        "M"
      ],
      [
        "Ġ",
        "'"
      ],
      [
        "Ġ",
        "I"
      ],
      [
        "Ġ",
        "g"
      ],
      [
        "Ġf",
        "or"
      ],
      [
        "i",
        "v"
      ],
      [
        "o",
        "l"
      ],
      [
        "t",
        "er"
      ],
      [
        "Ġ",
        "B"
      ],
      [
        "-",
        "@"
      ],
      [
        "Ġ@",
        "-@"
      ],
      [
        "i",
        "m"
      ],
      [
        "i",
        "d"
      ],
      [
        "i",
        "r"
      ],
      [
        "Ġa",
        "s"
      ],
      [
        "c",
        "t"
      ],
      [
        "i",
        "g"
      ],
      [
        "t",
        "h"
      ],
      [
        "o",
        "w"
      ],
      [
        "it",
        "h"
      ],
      [
        "Ġs",
        "t"
      ],
      [
        "Ġ",
        "H"
      ],
      [
        "u",
        "s"
      ],
      [
        "Ġ",
        "2"
      ],
      [
        "a",
        "y"
      ],
      [
        "Ġth",
        "at"
      ],
      [
        "Ġw",
        "ith"
      ],
      [
        "he",
        "r"
      ],
      [
        "o",
        "t"
      ],
      [
        "c",
        "e"
      ],
      [
        "v",
        "er"
      ],
      [
        "u",
        "t"
      ],
      [
        "at",
        "ion"
      ],
      [
        "e",
        "t"
      ],
      [
        "Ġ",
        "is"
      ],
      [
        "Ġ",
        "P"
      ],
      [
        "Ġw",
        "h"
      ],
      [
        "c",
        "h"
      ],
      [
        "Ġb",
        "y"
      ],
      [
        "Ġ",
        "R"
      ],
      [
        "Ġ",
        ")"
      ],
      [
        "Ġ",
        "("
      ],
      [
        "Ġa",
        "l"
      ],
      [
        "Ġ",
        "F"
      ],
      [
        "Ġ",
        "D"
      ],
      [
        "Ġc",
        "on"
      ],
      [
        "e",
        "m"
      ],
      [
        "u",
        "l"
      ],
      [
        "Ġ",
        "W"
      ],
      [
        "Ġa",
        "t"
      ],
      [
        "Ġ",
        "it"
      ],
      [
        "Ġ1",
        "9"
      ],
      [
        "a",
        "nd"
      ],
      [
        "a",
        "in"
      ],
      [
        "ro",
        "m"
      ],
      [
        "o",
        "s"
      ],
      [
        "Ġ",
        "N"
      ],
      [
        "Ġa",
        "n"
      ],
      [
        "Ġ",
        "G"
      ],
      [
        "Ġ",
        "L"
      ],
      [
        "er",
        "s"
      ],
      [
        "Ġ",
        "he"
      ],
      [
        "es",
        "t"
      ],
      [
        "a",
        "g"
      ],
      [
        "a",
        "v"
      ],
      [
        "0",
        "0"
      ],
      [
        "Ġ",
        "J"
      ],
      [
        "Ġs",
        "e"
      ],
      [
        "u",
        "m"
      ],
      [
        "Ġd",
        "e"
      ],
      [
        "Ġh",
        "is"
      ],
      [
        "Ġ",
        "r"
      ],
      [
        "Ġf",
        "rom"
      ],
      [
        "o",
        "d"
      ],
      [
        "Ġ",
        "O"
      ],
      [
        "r",
        "i"
      ],
      [
        "Ġc",
        "om"
      ],
      [
        "Ġ",
        "E"
      ],
      [
        "p",
        "e"
      ],
      [
        "un",
        "d"
      ],
      [
        "is",
        "t"
      ],
      [
        "Ġp",
        "ro"
      ],
      [
        "i",
        "f"
      ],
      [
        "l",
        "d"
      ],
      [
        "i",
        "es"
      ],
      [
        "er",
        "e"
      ],
      [
        "or",
        "t"
      ],
      [
        "Ġ",
        "v"
      ],
      [
        "re",
        "s"
      ],
      [
        "Ġs",
        "u"
      ],
      [
        "o",
        "re"
      ],
      [
        "Ġw",
        "ere"
      ],
      [
        "il",
        "l"
      ],
      [
        "ĠI",
        "n"
      ],
      [
        "a",
        "p"
      ],
      [
        "on",
        "g"
      ],
      [
        "e",
        "w"
      ],
      [
        "o",
        "p"
      ],
      [
        "ig",
        "h"
      ],
      [
        "ic",
        "h"
      ],
      [
        "Ġo",
        "r"
      ],
      [
        "at",
        "e"
      ],
      [
        "ar",
        "t"
      ],
      [
        "al",
        "l"
      ],
      [
        "ar",
        "d"
      ],
      [
        "a",
        "k"
      ],
      [
        "Ġc",
        "h"
      ],
      [
        "b",
        "er"
      ],
      [
        "am",
        "e"
      ],
      [
        "Ġe",
        "x"
      ],
      [
        "g",
        "h"
      ],
      [
        "a",
        "b"
      ],
      [
        "u",
        "d"
      ],
      [
        "Ġp",
        "l"
      ],
      [
        "s",
        "e"
      ],
      [
        "at",
        "ed"
      ],
      [
        "an",
        "t"
      ],
      [
        "it",
        "y"
      ],
      [
        "Ġa",
        "re"
      ],
      [
        "Ġ",
        "â"
      ],
      [
        "o",
        "c"
      ],
      [
        "iv",
        "e"
      ],
      [
        "es",
        "s"
      ],
      [
        "q",
        "u"
      ],
      [
        "Ġs",
        "h"
      ],
      [
        "Ġâ",
        "Ģ"
      ],
      [
        "Ġh",
        "ad"
      ],
      [
        "Ġ",
        "k"
      ],
      [
        "ac",
        "k"
      ],
      [
        "Ġwh",
        "ich"
      ],
      [
        "u",
        "p"
      ],
      [
        "Ġ",
        "U"
      ],
      [
        "re",
        "d"
      ],
      [
        "Ġ",
        "y"
      ],
      [
        "Ġ",
        "K"
      ],
      [
        "Ġ",
        "le"
      ],
      [
        "o",
        "v"
      ],
      [
        "ou",
        "r"
      ],
      [
        "Ġn",
        "ot"
      ],
      [
        "m",
        "ent"
      ],
      [
        "as",
        "t"
      ],
      [
        "i",
        "p"
      ],
      [
        "ĠS",
        "t"
      ],
      [
        "r",
        "it"
      ],
      [
        "or",
        "d"
      ],
      [
        "e",
        "ar"
      ],
      [
        "p",
        "t"
      ],
      [
        "Ġt",
        "r"
      ],
      [
        "g",
        "e"
      ],
      [
        "al",
        "ly"
      ],
      [
        "i",
        "an"
      ],
      [
        "t",
        "her"
      ],
      [
        "o",
        "st"
      ],
      [
        "in",
        "e"
      ],
      [
        "av",
        "e"
      ],
      [
        "igh",
        "t"
      ],
      [
        "o",
        "un"
      ],
      [
        "el",
        "l"
      ],
      [
        "Ġ",
        "3"
      ],
      [
        "is",
        "h"
      ],
      [
        "c",
        "l"
      ],
      [
        "ar",
        "y"
      ],
      [
        "ĠC",
        "h"
      ],
      [
        "Ġ2",
        "00"
      ],
      [
        "u",
        "st"
      ],
      [
        "ir",
        "st"
      ],
      [
        "i",
        "a"
      ],
      [
        "Ġ",
        ";"
      ],
      [
        "p",
        "p"
      ],
      [
        "t",
        "e"
      ],
      [
        "Ġcom",
        "p"
      ],
      [
        "Ġthe",
        "ir"
      ],
      [
        "Ġb",
        "ut"
      ],
      [
        "c",
        "c"
      ],
      [
        "s",
        "o"
      ],
      [
        "ct",
        "ion"
      ],
      [
        "f",
        "ter"
      ],
      [
        "Ġf",
        "irst"
      ],
      [
        "ou",
        "s"
      ],
      [
        "u",
        "re"
      ],
      [
        "Ġit",
        "s"
      ],
      [
        "ou",
        "ld"
      ],
      [
        "r",
        "a"
      ],
      [
        "ĠâĢ",
        "ĵ"
      ],
      [
        "id",
        "e"
      ],
      [
        "Ġw",
        "he"
      ],
      [
        "Ġcon",
        "t"
      ],
      [
        "Ġa",
        "r"
      ],
      [
        "u",
        "e"
      ],
      [
        "ic",
        "al"
      ],
      [
        "om",
        "e"
      ],
      [
        "Ġ",
        "un"
      ],
      [
        "w",
        "o"
      ],
      [
        "o",
        "g"
      ],
      [
        "he",
        "d"
      ],
      [
        "Ġ2",
        "0"
      ],
      [
        "Ġ",
        ":"
      ],
      [
        "i",
        "al"
      ],
      [
        "u",
        "b"
      ],
      [
        "i",
        "e"
      ],
      [
        "Ġ",
        "her"
      ],
      [
        "Ġal",
        "so"
      ],
      [
        "it",
        "ion"
      ],
      [
        "Ġ",
        "ro"
      ],
      [
        "Ġin",
        "t"
      ],
      [
        "Ġ",
        "V"
      ],
      [
        "ow",
        "n"
      ],
      [
        "Ġc",
        "l"
      ],
      [
        "at",
        "er"
      ],
      [
        "ou",
        "t"
      ],
      [
        "ig",
        "n"
      ],
      [
        "Ġ",
        "us"
      ],
      [
        "or",
        "m"
      ],
      [
        "or",
        "k"
      ],
      [
        "Ġa",
        "b"
      ],
      [
        "Ġa",
        "d"
      ],
      [
        "o",
        "k"
      ],
      [
        "f",
        "f"
      ],
      [
        "p",
        "er"
      ],
      [
        "Ġh",
        "ave"
      ],
      [
        "ag",
        "e"
      ],
      [
        "r",
        "u"
      ],
      [
        "i",
        "re"
      ],
      [
        "ĠH",
        "e"
      ],
      [
        "Ġon",
        "e"
      ],
      [
        "as",
        "s"
      ],
      [
        "Ġh",
        "as"
      ],
      [
        "Ġre",
        "c"
      ],
      [
        "l",
        "ow"
      ],
      [
        "m",
        "er"
      ],
      [
        "im",
        "e"
      ],
      [
        "Ġbe",
        "en"
      ],
      [
        "Ġt",
        "wo"
      ],
      [
        "Ġ",
        "4"
      ],
      [
        "d",
        "u"
      ],
      [
        "Ġre",
        "s"
      ],
      [
        "ĠT",
        "h"
      ],
      [
        "Ġ1",
        "8"
      ],
      [
        ".",
        "@"
      ],
      [
        "Ġ@",
        ".@"
      ],
      [
        "Ġp",
        "er"
      ],
      [
        "on",
        "d"
      ],
      [
        "Ġ",
        "5"
      ],
      [
        "re",
        "e"
      ],
      [
        "Ġb",
        "o"
      ],
      [
        "Ġwh",
        "o"
      ],
      [
        "en",
        "ce"
      ],
      [
        "ur",
        "ing"
      ],
      [
        "ou",
        "gh"
      ],
      [
        "l",
        "and"
      ],
      [
        "t",
        "ed"
      ],
      [
        "Ġth",
        "is"
      ],
      [
        "a",
        "re"
      ],
      [
        "Ġbe",
        "c"
      ],
      [
        "i",
        "le"
      ],
      [
        "r",
        "y"
      ],
      [
        "p",
        "l"
      ],
      [
        "or",
        "y"
      ],
      [
        "an",
        "ce"
      ],
      [
        "u",
        "gh"
      ],
      [
        "e",
        "ct"
      ],
      [
        "ĠI",
        "t"
      ],
      [
        "an",
        "s"
      ],
      [
        "Ġs",
        "c"
      ],
      [
        "Ġpl",
        "ay"
      ],
      [
        "ĠA",
        "l"
      ],
      [
        "Ġthe",
        "y"
      ],
      [
        "cl",
        "ud"
      ],
      [
        "Ġy",
        "ear"
      ],
      [
        "Ġ20",
        "1"
      ],
      [
        "Ġp",
        "art"
      ],
      [
        "Ġa",
        "g"
      ],
      [
        "ad",
        "e"
      ],
      [
        "Ġd",
        "es"
      ],
      [
        "ation",
        "s"
      ],
      [
        "Ġm",
        "an"
      ],
      [
        "r",
        "ic"
      ],
      [
        "Ġo",
        "ther"
      ],
      [
        "Ġd",
        "is"
      ],
      [
        "ul",
        "t"
      ],
      [
        "Ġt",
        "e"
      ],
      [
        "el",
        "y"
      ],
      [
        "Ġa",
        "fter"
      ],
      [
        "ac",
        "h"
      ],
      [
        "Ġ",
        "j"
      ],
      [
        "Ġs",
        "er"
      ],
      [
        "Ġo",
        "ver"
      ],
      [
        "o",
        "ver"
      ],
      [
        "Ġof",
        "f"
      ],
      [
        "Ġ",
        "up"
      ],
      [
        ",",
        "@"
      ],
      [
        "Ġ@",
        ",@"
      ],
      [
        "an",
        "g"
      ],
      [
        "Ġin",
        "clud"
      ],
      [
        "Ġs",
        "p"
      ],
      [
        "ion",
        "s"
      ],
      [
        "Ġ",
        "en"
      ],
      [
        "it",
        "e"
      ],
      [
        "ur",
        "n"
      ],
      [
        "ac",
        "t"
      ],
      [
        "o",
        "und"
      ],
      [
        "oun",
        "t"
      ],
      [
        "Ġ",
        "im"
      ],
      [
        "ac",
        "e"
      ],
      [
        "ic",
        "e"
      ],
      [
        "i",
        "z"
      ],
      [
        "i",
        "b"
      ],
      [
        "w",
        "n"
      ],
      [
        "Ġo",
        "ut"
      ],
      [
        "k",
        "e"
      ],
      [
        "res",
        "s"
      ],
      [
        "Ġ",
        "Y"
      ],
      [
        "ar",
        "k"
      ],
      [
        "Ġt",
        "ime"
      ],
      [
        "Ġn",
        "e"
      ],
      [
        "Ġint",
        "o"
      ],
      [
        "Ġf",
        "in"
      ],
      [
        "Ġp",
        "re"
      ],
      [
        "Ġe",
        "v"
      ],
      [
        "c",
        "ed"
      ],
      [
        "p",
        "ort"
      ],
      [
        "w",
        "e"
      ],
      [
        "ĠO",
        "n"
      ],
      [
        "Ġs",
        "pe"
      ],
      [
        "c",
        "es"
      ],
      [
        "Ġw",
        "ould"
      ],
      [
        "Ġm",
        "ore"
      ],
      [
        "Ġs",
        "he"
      ],
      [
        "Ġcom",
        "m"
      ],
      [
        "as",
        "on"
      ],
      [
        "Ġat",
        "t"
      ],
      [
        "w",
        "ard"
      ],
      [
        "ro",
        "ugh"
      ],
      [
        "Ġal",
        "l"
      ],
      [
        "re",
        "n"
      ],
      [
        "os",
        "e"
      ],
      [
        "on",
        "e"
      ],
      [
        "a",
        "il"
      ],
      [
        "it",
        "ed"
      ],
      [
        "Ġh",
        "im"
      ],
      [
        "am",
        "p"
      ],
      [
        "Ġw",
        "e"
      ],
      [
        "ter",
        "n"
      ],
      [
        "i",
        "ed"
      ],
      [
        "en",
        "s"
      ],
      [
        "o",
        "in"
      ],
      [
        "as",
        "ed"
      ],
      [
        "Ġ",
        "6"
      ],
      [
        "ĠU",
        "n"
      ],
      [
        "Ġc",
        "ent"
      ],
      [
        "ri",
        "b"
      ],
      [
        "ĠR",
        "e"
      ],
      [
        "Ġw",
        "ork"
      ],
      [
        "ent",
        "s"
      ],
      [
        "il",
        "d"
      ],
      [
        "ĠS",
        "e"
      ],
      [
        "i",
        "x"
      ],
      [
        "Ġm",
        "e"
      ],
      [
        "o",
        "od"
      ],
      [
        "as",
        "e"
      ],
      [
        "l",
        "es"
      ],
      [
        "ing",
        "s"
      ],
      [
        "t",
        "s"
      ],
      [
        "m",
        "an"
      ],
      [
        "ro",
        "und"
      ],
      [
        "Ġ",
        "7"
      ],
      [
        "Ġf",
        "e"
      ],
      [
        "Ġthe",
        "m"
      ],
      [
        "ab",
        "le"
      ],
      [
        "i",
        "ous"
      ],
      [
        "Ġwhe",
        "n"
      ],
      [
        "Ġbe",
        "t"
      ],
      [
        "Ġs",
        "ong"
      ],
      [
        "ak",
        "e"
      ],
      [
        "or",
        "s"
      ],
      [
        "Ġse",
        "c"
      ],
      [
        "at",
        "es"
      ],
      [
        "al",
        "s"
      ],
      [
        "v",
        "el"
      ],
      [
        "ub",
        "l"
      ],
      [
        "Ġe",
        "ar"
      ],
      [
        "Ġre",
        "m"
      ],
      [
        "ĠA",
        "n"
      ],
      [
        "ol",
        "d"
      ],
      [
        "is",
        "s"
      ],
      [
        "er",
        "ed"
      ],
      [
        "Ġk",
        "n"
      ],
      [
        "f",
        "orm"
      ],
      [
        "Ġm",
        "ost"
      ],
      [
        "Ġd",
        "uring"
      ],
      [
        "g",
        "an"
      ],
      [
        "at",
        "h"
      ],
      [
        "a",
        "us"
      ],
      [
        "Ġon",
        "ly"
      ],
      [
        "f",
        "er"
      ],
      [
        "und",
        "er"
      ],
      [
        "il",
        "m"
      ],
      [
        "Ġn",
        "ew"
      ],
      [
        "Ġg",
        "ame"
      ],
      [
        "o",
        "y"
      ],
      [
        "v",
        "ed"
      ],
      [
        "em",
        "ber"
      ],
      [
        "v",
        "e"
      ],
      [
        "or",
        "th"
      ],
      [
        "ol",
        "low"
      ],
      [
        "we",
        "en"
      ],
      [
        "Ġ19",
        "9"
      ],
      [
        "re",
        "at"
      ],
      [
        "ĠA",
        "s"
      ],
      [
        "w",
        "ay"
      ],
      [
        "ou",
        "th"
      ],
      [
        "ĠA",
        "r"
      ],
      [
        "Ġ",
        "9"
      ],
      [
        "Ġ",
        "8"
      ],
      [
        "Ġre",
        "l"
      ],
      [
        "Ġc",
        "an"
      ],
      [
        "Ġab",
        "out"
      ],
      [
        "ter",
        "s"
      ],
      [
        "Ġag",
        "ain"
      ],
      [
        "Ġse",
        "ason"
      ],
      [
        "Ġth",
        "ree"
      ],
      [
        "Ġcon",
        "s"
      ],
      [
        "Ġth",
        "an"
      ],
      [
        "ĠE",
        "n"
      ],
      [
        "ic",
        "k"
      ],
      [
        "u",
        "g"
      ],
      [
        "ĠM",
        "ar"
      ],
      [
        "Ġbet",
        "ween"
      ],
      [
        "at",
        "t"
      ],
      [
        "a",
        "w"
      ],
      [
        "r",
        "al"
      ],
      [
        "Ġrec",
        "ord"
      ],
      [
        "Ġs",
        "ome"
      ],
      [
        "ation",
        "al"
      ],
      [
        "Ġ",
        "under"
      ],
      [
        "on",
        "s"
      ],
      [
        "Ġch",
        "ar"
      ],
      [
        "ct",
        "ed"
      ],
      [
        "ul",
        "ar"
      ],
      [
        "f",
        "ore"
      ],
      [
        "Ġth",
        "rough"
      ],
      [
        "in",
        "d"
      ],
      [
        "ic",
        "t"
      ],
      [
        "Ġl",
        "ater"
      ],
      [
        "h",
        "ip"
      ],
      [
        "i",
        "ew"
      ],
      [
        "Ġc",
        "ol"
      ],
      [
        "Ġn",
        "um"
      ],
      [
        "Ġ",
        "00"
      ],
      [
        "ĠC",
        "om"
      ],
      [
        "f",
        "t"
      ],
      [
        "is",
        "ion"
      ],
      [
        "Ġw",
        "rit"
      ],
      [
        "Ġwh",
        "ile"
      ],
      [
[...]
